xxunk	0
xxpad	0
xxbos	0
xxfld	0
xxmaj	0
xxup	0
xxrep	0
xxwrep	0
<unk>	0
▁	-1.49148
▁de	-3.10372
▁,	-3.47088
▁.	-3.76572
▁la	-3.77724
s	-3.87523
▁el	-3.939
▁en	-3.9517
▁y	-4.2595
▁a	-4.47152
▁&'	-4.66205
▁que	-4.73231
▁los	-4.84812
▁del	-4.87408
▁se	-5.01049
▁por	-5.16746
▁con	-5.23242
▁un	-5.24605
▁una	-5.27361
▁)	-5.35803
▁(	-5.35947
▁su	-5.37276
▁las	-5.42565
n	-5.56437
▁al	-5.69722
▁es	-5.69799
▁para	-5.75027
▁como	-5.77175
r	-5.81133
es	-5.84099
o	-5.86989
▁fue	-6.01191
a	-6.02157
ó	-6.09518
do	-6.10321
.	-6.13023
▁=	-6.1381
▁%	-6.16131
▁más	-6.25984
da	-6.26414
-	-6.31809
▁o	-6.35555
▁no	-6.37875
▁2	-6.39106
▁:	-6.40809
e	-6.44922
▁lo	-6.59187
▁eran	-6.61375
▁sus	-6.63441
▁km	-6.66322
ndo	-6.70225
ción	-6.70332
i	-6.71236
l	-6.73435
ta	-6.74732
▁entre	-6.75589
ba	-6.76398
y	-6.77167
t	-6.813
mente	-6.84395
c	-6.86922
▁también	-6.88229
d	-6.91816
▁municipio	-6.94366
▁ha	-6.98205
na	-6.99748
▁población	-6.99824
▁;	-7.00667
ma	-7.01471
ra	-7.0216
la	-7.02287
▁este	-7.02979
to	-7.05223
▁esta	-7.08845
dos	-7.08867
se	-7.09423
▁son	-7.10462
▁le	-7.13001
ron	-7.13854
ar	-7.14426
m	-7.15238
▁re	-7.15904
on	-7.16736
▁años	-7.18147
▁era	-7.18267
te	-7.18592
sa	-7.18868
▁año	-7.19148
▁desde	-7.21527
▁pero	-7.21832
no	-7.22319
co	-7.22424
▁dos	-7.22957
▁según	-7.24285
k	-7.24332
▁sobre	-7.24731
▁durante	-7.24975
▁parte	-7.26133
▁hasta	-7.26503
le	-7.28294
ca	-7.29369
▁sin	-7.29614
▁ser	-7.30774
▁censo	-7.31902
u	-7.33447
▁había	-7.34246
de	-7.35376
▁personas	-7.35871
▁tiene	-7.36081
▁donde	-7.36199
▁«	-7.362
▁»	-7.36257
ro	-7.37315
▁ciudad	-7.37427
▁/	-7.38259
ciones	-7.38906
▁2010	-7.39961
g	-7.4112
▁total	-7.41972
▁cual	-7.43496
▁estado	-7.43512
mo	-7.43682
▁habitantes	-7.46169
▁después	-7.47332
ga	-7.48177
ce	-7.49136
en	-7.49204
z	-7.4969
lo	-7.49753
ne	-7.50413
▁in	-7.53017
▁san	-7.53219
p	-7.53585
▁primera	-7.54599
das	-7.55718
▁cuando	-7.56128
▁estados	-7.56408
b	-7.57353
▁gran	-7.57768
▁está	-7.58672
go	-7.59726
▁e	-7.61636
▁densidad	-7.63606
▁unidos	-7.6365
ti	-7.63767
▁0	-7.6521
▁1	-7.65818
▁encuentra	-7.66809
▁otras	-7.68092
an	-7.68154
les	-7.69608
x	-7.70357
▁otros	-7.71348
▁forma	-7.72127
▁si	-7.7255
f	-7.72746
al	-7.72784
▁condado	-7.72854
▁estaba	-7.73343
▁contra	-7.74644
▁fueron	-7.74762
▁historia	-7.75887
▁primer	-7.76025
ri	-7.76106
▁18	-7.76334
di	-7.76396
os	-7.76567
man	-7.77978
ci	-7.78512
ado	-7.78934
▁así	-7.79071
w	-7.7987
▁nacional	-7.79908
▁ya	-7.80123
▁tras	-7.80267
ja	-7.8156
▁nombre	-7.83039
▁ubicado	-7.83081
▁tenía	-7.83116
▁razas	-7.83697
▁uno	-7.84473
h	-7.84588
▁mismo	-7.86007
2	-7.8635
▁the	-7.86443
▁tierra	-7.88174
▁agua	-7.88812
5	-7.89598
3	-7.89808
za	-7.89845
rse	-7.89846
▁tres	-7.90667
▁puede	-7.90803
er	-7.91316
▁3	-7.92386
ban	-7.93544
▁lugar	-7.93965
me	-7.94024
6	-7.94191
1	-7.94224
fi	-7.94261
ría	-7.94314
us	-7.94764
▁muy	-7.95181
7	-7.95196
4	-7.95369
▁mayor	-7.95887
8	-7.96432
▁además	-7.96614
▁vez	-7.96646
▁general	-7.96669
▁aunque	-7.96689
▁siglo	-7.96773
▁guerra	-7.97408
v	-7.97893
▁estadounidense	-7.97948
▁gobierno	-7.98896
▁han	-7.99745
▁cualquier	-7.99747
9	-7.99891
ge	-8.00294
pe	-8.00836
in	-8.01431
ka	-8.0215
▁17	-8.02609
ada	-8.04053
ve	-8.04068
▁mar	-8.04719
is	-8.04966
▁sido	-8.05263
▁grupo	-8.05632
re	-8.05909
ter	-8.0645
▁sur	-8.06546
▁todo	-8.07274
ía	-8.07455
▁15	-8.08051
que	-8.08394
▁tiempo	-8.08492
pa	-8.09239
▁superficie	-8.09539
▁partido	-8.09711
ni	-8.09718
▁mientras	-8.12046
▁vida	-8.13228
li	-8.13472
▁bajo	-8.13538
▁nueva	-8.13718
▁cada	-8.13751
▁pre	-8.1415
qui	-8.1448
va	-8.1486
▁10	-8.14943
▁nuevo	-8.14951
el	-8.15025
▁embargo	-8.15903
▁junto	-8.15927
idad	-8.1697
▁pro	-8.17104
▁compuesto	-8.17248
po	-8.17412
▁país	-8.1746
mi	-8.18386
▁norte	-8.18421
▁oficina	-8.18632
vi	-8.1872
▁4	-8.18852
▁tanto	-8.19431
á	-8.19647
▁16	-8.19767
▁universidad	-8.20012
▁equipo	-8.20042
as	-8.20207
▁pa	-8.203
▁hab	-8.21087
▁geografía	-8.22141
▁ese	-8.22644
▁serie	-8.22665
▁todos	-8.23925
dor	-8.24159
tu	-8.24981
▁algunos	-8.25065
ten	-8.26232
gi	-8.26778
ur	-8.27226
▁españa	-8.27649
▁co	-8.27761
▁demografía	-8.2845
▁quien	-8.28854
ver	-8.2919
▁raza	-8.29379
▁siendo	-8.2962
ya	-8.29893
▁hacia	-8.30118
▁corresponden	-8.30211
▁sistema	-8.30248
▁estos	-8.30439
▁segunda	-8.31018
▁blancos	-8.31077
▁c	-8.31289
ch	-8.31888
jo	-8.31927
▁luego	-8.32163
▁firme	-8.32175
▁centro	-8.32242
▁debido	-8.32499
▁coordenadas	-8.32611
▁él	-8.32636
▁final	-8.32901
▁12	-8.32945
▁mundo	-8.33241
▁ex	-8.33414
▁poblacional	-8.34014
ton	-8.34435
che	-8.34584
▁9	-8.34604
▁antes	-8.34812
res	-8.35569
▁5	-8.35598
▁esto	-8.35722
í	-8.35757
pi	-8.35909
▁casa	-8.36201
▁latinos	-8.36285
nte	-8.36542
▁río	-8.36575
ismo	-8.36748
tra	-8.36926
je	-8.36966
bo	-8.37502
▁hispanos	-8.37647
▁juan	-8.38299
▁club	-8.38301
cu	-8.38347
▁residie	-8.38556
▁2015	-8.38712
▁solo	-8.39434
▁hay	-8.3988
mos	-8.40481
▁julio	-8.40768
ber	-8.40828
vo	-8.41234
▁película	-8.41563
ll	-8.41672
be	-8.41901
tor	-8.42237
▁familia	-8.42857
bi	-8.43146
▁número	-8.43335
era	-8.43472
▁obra	-8.44016
▁varios	-8.44026
▁presidente	-8.44054
si	-8.44304
▁temporada	-8.44321
▁entonces	-8.44965
▁otro	-8.45054
▁di	-8.45811
▁pueden	-8.45813
▁14	-8.45963
▁cuatro	-8.46244
ista	-8.46388
rio	-8.46556
▁mayo	-8.46715
▁ca	-8.46844
▁cuenta	-8.4686
▁sub	-8.46947
▁día	-8.46987
ia	-8.4699
ven	-8.471
cha	-8.47259
▁junio	-8.47322
ke	-8.48277
▁per	-8.48619
fa	-8.48646
▁2014	-8.48806
▁11	-8.49075
00	-8.49341
rá	-8.49508
▁inglés	-8.49693
▁13	-8.49863
▁mundial	-8.50702
▁carrera	-8.50724
▁josé	-8.51366
▁bo	-8.52426
▁octubre	-8.53259
▁través	-8.53426
▁segundo	-8.53565
sta	-8.53725
ki	-8.53794
▁provincia	-8.53912
tó	-8.54141
j	-8.54232
▁internacional	-8.54483
th	-8.54559
▁méxico	-8.54819
▁6	-8.55719
▁septiembre	-8.56201
▁afroamericano	-8.56824
▁zona	-8.56853
car	-8.56867
▁amerindios	-8.57055
▁agosto	-8.57093
▁trabajo	-8.57504
▁asiáticos	-8.57578
▁tuvo	-8.57714
ck	-8.57807
▁real	-8.5788
zo	-8.57964
▁enero	-8.58066
▁diciembre	-8.58566
▁so	-8.58726
▁álbum	-8.59774
é	-8.60171
▁car	-8.60605
ria	-8.6063
miento	-8.60748
ación	-8.60776
▁me	-8.6131
▁muchos	-8.61521
▁of	-8.61566
tar	-8.61602
endo	-8.61837
tos	-8.61873
▁20	-8.61933
án	-8.61934
▁principal	-8.61973
il	-8.62025
▁poco	-8.62037
▁largo	-8.62109
▁ellos	-8.62214
chi	-8.6229
ón	-8.624
▁dentro	-8.62565
▁marzo	-8.62701
▁banda	-8.62862
▁abril	-8.62874
▁están	-8.62928
▁otra	-8.62949
▁medio	-8.63826
▁hizo	-8.63867
ana	-8.63946
▁noviembre	-8.64002
▁grandes	-8.64056
eron	-8.65011
▁muerte	-8.65129
▁iglesia	-8.65307
▁8	-8.65492
▁tipo	-8.65524
tro	-8.65681
▁santa	-8.65745
▁bien	-8.66146
or	-8.66249
▁partir	-8.66337
▁rey	-8.66715
los	-8.66718
et	-8.66854
▁pacífico	-8.66899
▁desarrollo	-8.6708
▁estas	-8.67304
▁ella	-8.67459
▁tarde	-8.67682
▁poder	-8.67753
encia	-8.68515
cho	-8.69235
▁mejor	-8.69247
▁política	-8.69386
▁2011	-8.69525
▁época	-8.69809
▁ubicada	-8.69967
▁fútbol	-8.70053
▁7	-8.70345
▁siguiente	-8.71628
▁hace	-8.71637
▁región	-8.71773
▁algunas	-8.72157
▁música	-8.72178
▁ante	-8.7229
▁he	-8.72867
▁central	-8.72896
▁pueblo	-8.72998
▁ejemplo	-8.73122
con	-8.73447
nos	-8.73729
cre	-8.73888
▁español	-8.74011
ry	-8.74135
▁varias	-8.7433
ida	-8.7459
▁importante	-8.74595
▁sólo	-8.74701
▁obras	-8.7478
▁conocido	-8.74811
▁argentina	-8.75015
der	-8.75032
▁unos	-8.75157
▁manera	-8.75207
▁febrero	-8.75321
den	-8.75373
▁mayoría	-8.75425
ina	-8.75636
men	-8.75727
ados	-8.75808
▁comenzó	-8.76258
ir	-8.76347
▁villa	-8.76409
▁menos	-8.76507
▁p	-8.76606
land	-8.76626
▁hijo	-8.76922
▁uso	-8.77298
▁programa	-8.77393
ger	-8.77441
▁momento	-8.77811
▁diferentes	-8.78114
▁ver	-8.78154
▁capital	-8.782
▁m	-8.78214
ho	-8.78576
gen	-8.78705
▁fin	-8.78824
▁ejército	-8.78918
▁vi	-8.79152
cri	-8.79595
▁primeros	-8.7967
ing	-8.79708
▁países	-8.79798
▁caso	-8.79823
ha	-8.79956
▁misma	-8.80226
▁estudios	-8.80273
▁liga	-8.80727
▁frente	-8.80891
▁pertenecían	-8.80985
cia	-8.81024
mar	-8.81054
▁costa	-8.81134
▁actual	-8.81195
tas	-8.81457
▁república	-8.82289
▁2013	-8.82819
ed	-8.82895
it	-8.82949
▁padre	-8.83314
▁tienen	-8.83478
▁hecho	-8.83727
▁maría	-8.83756
▁casi	-8.83797
un	-8.83984
▁división	-8.84002
ran	-8.84179
st	-8.84592
▁millones	-8.846
▁nivel	-8.84606
▁isla	-8.84868
ko	-8.84886
▁isleño	-8.84964
gu	-8.85051
▁canción	-8.8507
sh	-8.85082
▁todas	-8.85224
dores	-8.85578
▁edad	-8.85707
▁base	-8.86117
▁producción	-8.8646
tuvo	-8.8653
▁días	-8.86557
▁último	-8.86557
▁30	-8.86632
▁actualmente	-8.86651
▁director	-8.86672
▁du	-8.86723
ntes	-8.86759
lla	-8.86907
▁escuela	-8.87031
▁pi	-8.87685
ble	-8.87946
▁orden	-8.87975
▁original	-8.87994
▁b	-8.88036
▁2012	-8.88101
ña	-8.88146
ros	-8.8819
▁llamado	-8.88203
▁posteriormente	-8.88283
▁po	-8.88362
▁punto	-8.88785
ándose	-8.88896
▁mi	-8.89005
▁hacer	-8.89229
▁inter	-8.89543
▁francia	-8.89631
▁be	-8.89717
▁reino	-8.89734
▁título	-8.90095
nes	-8.90272
▁fe	-8.90356
▁media	-8.90943
▁haber	-8.91122
▁cor	-8.91128
▁línea	-8.9119
adas	-8.9121
las	-8.91387
▁madrid	-8.91553
▁toda	-8.9185
▁acuerdo	-8.91865
sen	-8.92052
cas	-8.92296
▁finalmente	-8.92436
▁dis	-8.92683
ño	-8.92688
▁control	-8.92755
cio	-8.92969
ando	-8.93141
um	-8.93545
ización	-8.93549
▁española	-8.93627
▁va	-8.93698
gar	-8.93906
▁cuales	-8.94786
▁arte	-8.94799
▁carlos	-8.94964
▁juego	-8.94967
ante	-8.95101
▁cerca	-8.95251
▁principales	-8.95606
ú	-8.95609
▁compañía	-8.95706
ig	-8.95852
▁copa	-8.95859
▁mediante	-8.95958
▁social	-8.9598
▁cu	-8.962
▁can	-8.96394
▁li	-8.9645
▁éxito	-8.96542
▁proyecto	-8.96868
▁estudio	-8.97107
▁sal	-8.97209
istas	-8.97316
▁luis	-8.97485
▁origen	-8.97651
▁pesar	-8.97704
du	-8.97722
▁popular	-8.97789
cos	-8.97923
▁cinco	-8.97987
cal	-8.9805
lin	-8.9805
▁veces	-8.98163
ley	-8.98194
▁pasa	-8.98458
▁área	-8.98459
▁televisión	-8.98478
▁mal	-8.98663
▁bar	-8.98774
▁construcción	-8.98895
▁tal	-8.99422
com	-8.99496
ul	-8.99643
ido	-8.9976
▁ii	-8.99802
▁estilo	-8.99925
▁libro	-9.00188
▁cine	-9.00224
mer	-9.00538
▁cargo	-9.00544
▁ni	-9.00706
▁campeonato	-9.00871
fe	-9.00959
tiva	-9.01055
▁causa	-9.01055
tura	-9.01127
▁especie	-9.01365
▁europa	-9.01496
▁década	-9.01501
▁and	-9.01542
xi	-9.01706
▁sol	-9.02047
▁militar	-9.0233
▁color	-9.02352
▁2009	-9.02415
▁proceso	-9.02483
▁convirtió	-9.02537
▁libre	-9.02546
▁miembros	-9.03018
▁lu	-9.03231
▁premio	-9.03543
▁torneo	-9.03782
▁tener	-9.03937
tion	-9.03996
▁habían	-9.04301
▁fuera	-9.04344
▁25	-9.04454
tre	-9.047
▁llegó	-9.04758
▁partidos	-9.04785
▁campo	-9.0486
mas	-9.04949
▁finales	-9.0501
▁biografía	-9.05065
ces	-9.05123
▁dio	-9.05153
▁puerto	-9.0528
ine	-9.05408
▁ambos	-9.05507
▁cabo	-9.05648
▁chile	-9.05789
▁for	-9.05857
ren	-9.05864
▁movimiento	-9.05935
▁oficial	-9.06058
▁hu	-9.06224
▁2007	-9.06479
ita	-9.06743
cer	-9.06775
▁incluso	-9.07213
bra	-9.07309
tal	-9.07668
▁tan	-9.07725
▁pe	-9.07749
▁cultura	-9.07796
▁alrededor	-9.07853
▁2008	-9.07872
▁par	-9.07973
▁victoria	-9.08064
▁auto	-9.08119
▁versión	-9.08171
tivo	-9.08359
fo	-9.08611
bu	-9.08628
pla	-9.08808
▁teatro	-9.08905
nia	-9.08937
▁puesto	-9.08968
▁red	-9.09049
▁hoy	-9.09057
▁radio	-9.09135
ner	-9.09281
at	-9.09323
▁muchas	-9.095
▁derecho	-9.09555
ín	-9.09606
▁ju	-9.09707
tado	-9.09835
▁territorio	-9.09841
▁trans	-9.099
▁batalla	-9.09985
par	-9.10017
▁francisco	-9.10097
bri	-9.10155
cro	-9.10213
▁estación	-9.10218
▁disco	-9.10451
lu	-9.10469
▁unión	-9.10503
sión	-9.10525
▁papel	-9.10795
nas	-9.1097
cla	-9.11078
ones	-9.11096
▁museo	-9.11128
▁selección	-9.11178
▁her	-9.11214
tes	-9.1126
▁conjunto	-9.11283
▁especies	-9.11369
em	-9.11491
aron	-9.11647
▁mujeres	-9.11838
▁alto	-9.12077
▁especial	-9.12439
▁2016	-9.12514
▁miembro	-9.12561
,0	-9.12585
▁esa	-9.12733
mp	-9.12813
▁género	-9.12884
am	-9.12982
▁américa	-9.1311
▁distrito	-9.13219
▁servicio	-9.13498
▁grupos	-9.13547
▁elecciones	-9.13616
▁público	-9.13713
▁cuerpo	-9.13738
▁hi	-9.13904
pu	-9.14461
▁fa	-9.14472
▁mezcla	-9.14523
▁igual	-9.15068
▁super	-9.15092
ion	-9.15247
▁alta	-9.15431
▁sí	-9.15506
ly	-9.15576
▁2006	-9.1579
ad	-9.15959
▁sociedad	-9.1603
▁trata	-9.16053
bro	-9.16098
▁recibió	-9.16102
▁mucho	-9.16522
oso	-9.16588
▁sino	-9.16806
▁posible	-9.16918
có	-9.1693
▁cal	-9.16943
▁f	-9.16973
▁bu	-9.17148
▁puntos	-9.17176
▁relación	-9.17401
▁debe	-9.17636
▁metros	-9.17677
ol	-9.17689
▁importantes	-9.17767
▁24	-9.17899
aba	-9.18019
▁sería	-9.18393
▁superior	-9.18557
sis	-9.18819
ero	-9.18833
▁organización	-9.18964
▁ley	-9.18966
▁cambio	-9.18993
▁conocida	-9.1911
▁2000	-9.19111
val	-9.19124
▁educación	-9.19132
▁principalmente	-9.19515
ras	-9.19716
▁siempre	-9.1972
tri	-9.19794
per	-9.19822
▁departamento	-9.19944
▁empresa	-9.20167
ville	-9.20183
▁porque	-9.20227
min	-9.20415
▁19	-9.20449
nd	-9.20644
▁última	-9.20747
▁estructura	-9.21037
▁llamada	-9.21128
▁21	-9.21274
▁madre	-9.2156
▁ru	-9.21877
▁pu	-9.22055
▁york	-9.22235
▁hombres	-9.22328
ng	-9.2262
▁autor	-9.22708
▁grande	-9.22738
▁político	-9.22823
▁pedro	-9.22865
▁mu	-9.22869
ty	-9.22977
-19	-9.23049
▁pan	-9.23069
▁2005	-9.23153
gue	-9.23181
▁siguientes	-9.23289
▁anti	-9.23299
día	-9.23327
▁township	-9.23342
▁chi	-9.23408
▁100	-9.2356
▁natural	-9.23657
▁modo	-9.23704
ano	-9.23772
▁antonio	-9.23835
▁aún	-9.239
▁oeste	-9.23904
▁equipos	-9.24078
▁instituto	-9.24156
▁plaza	-9.24265
▁interior	-9.24372
▁información	-9.24841
▁22	-9.25175
▁fuerzas	-9.25293
▁propio	-9.25319
▁posee	-9.2538
▁oro	-9.25418
id	-9.25563
bre	-9.25617
▁encuentran	-9.25656
▁presenta	-9.25714
ró	-9.25786
▁sede	-9.25855
cur	-9.25891
▁edificio	-9.25903
▁gra	-9.25951
▁meses	-9.25983
ic	-9.26063
▁investigación	-9.26078
▁principios	-9.26092
tin	-9.26098
▁diferencia	-9.26099
▁john	-9.26252
▁ben	-9.26331
▁valle	-9.26583
▁planta	-9.2673
▁honor	-9.26929
▁primero	-9.26937
▁nació	-9.26937
▁único	-9.26945
ru	-9.26968
via	-9.27114
wa	-9.27185
▁parque	-9.27478
ían	-9.27525
▁publicado	-9.2764
ju	-9.27689
▁buenos	-9.2783
▁formula	-9.27898
zi	-9.27962
mb	-9.27984
▁término	-9.28001
gan	-9.28029
▁musical	-9.28128
▁ministro	-9.28156
iones	-9.28259
▁cha	-9.28272
io	-9.28291
▁allí	-9.28355
▁características	-9.28366
▁comunidad	-9.28392
▁hija	-9.2842
▁período	-9.28538
▁consejo	-9.28584
▁podría	-9.28734
ac	-9.28747
del	-9.28776
▁posición	-9.29271
rica	-9.29276
▁seis	-9.29276
pres	-9.29308
ster	-9.29322
▁edición	-9.29397
▁localidad	-9.29435
▁cantidad	-9.29511
▁local	-9.29573
dia	-9.29589
▁alemania	-9.29602
▁medida	-9.29683
▁datos	-9.29786
▁dirección	-9.29926
dio	-9.29931
iza	-9.30088
▁calle	-9.30143
pasó	-9.30656
len	-9.30721
▁fecha	-9.30861
▁rock	-9.30914
gas	-9.30933
▁especialmente	-9.3099
fu	-9.3122
can	-9.31242
▁cuyo	-9.31315
▁ho	-9.31384
ente	-9.31657
▁mil	-9.31812
ji	-9.32003
▁francés	-9.32039
▁civil	-9.32118
▁decir	-9.32172
▁23	-9.32173
dy	-9.32183
▁ayuda	-9.32192
▁categoría	-9.32211
▁antiguo	-9.32292
▁incluyendo	-9.32393
▁juegos	-9.32947
▁lista	-9.3296
au	-9.32971
▁aparece	-9.33043
ut	-9.33133
▁lucha	-9.3317
▁realizó	-9.33325
▁servicios	-9.33366
▁diseño	-9.33419
fer	-9.33468
▁baja	-9.33569
ino	-9.33577
des	-9.33672
▁dicho	-9.33722
▁fuerza	-9.33887
▁cruz	-9.33992
ario	-9.34123
▁canciones	-9.34139
lar	-9.34155
▁paso	-9.3434
port	-9.34385
ea	-9.34559
▁anterior	-9.34564
hi	-9.34762
▁formación	-9.35079
▁mujer	-9.35166
▁2004	-9.35188
▁don	-9.35263
▁imperio	-9.35275
ec	-9.353
▁profesional	-9.35451
▁toma	-9.35597
▁resto	-9.35625
▁nombrado	-9.35769
▁hombre	-9.35854
▁canal	-9.35949
gra	-9.36248
tan	-9.36282
ste	-9.36492
▁menor	-9.36756
▁antigua	-9.36784
▁estaban	-9.36829
▁manuel	-9.3693
▁...	-9.36983
▁revista	-9.3735
▁mon	-9.37356
ura	-9.37363
▁new	-9.37675
▁periodo	-9.37834
▁modelo	-9.37901
ler	-9.37946
▁ganó	-9.37998
▁mercado	-9.38017
cen	-9.3811
cul	-9.38147
im	-9.38489
▁espacio	-9.38602
▁jugador	-9.38818
▁existen	-9.38866
bla	-9.38958
50	-9.39009
▁resultado	-9.39019
rían	-9.39132
▁jefe	-9.39161
osa	-9.39242
▁campaña	-9.39358
zu	-9.39401
lí	-9.39449
▁ahora	-9.39462
▁ciudades	-9.39531
▁h	-9.39556
▁camino	-9.39578
▁pues	-9.39683
▁muestra	-9.39732
▁representa	-9.39758
▁28	-9.39775
shi	-9.39883
▁lleva	-9.39916
▁personal	-9.40145
▁gira	-9.40179
▁aires	-9.40249
q	-9.4034
gri	-9.40468
ze	-9.40529
▁apoyo	-9.40933
▁actividad	-9.40939
▁vol	-9.41037
▁tri	-9.41222
▁mag	-9.41257
▁obtuvo	-9.41263
▁2017	-9.41501
-20	-9.41661
▁mes	-9.41773
ré	-9.41787
▁27	-9.41925
▁propia	-9.41963
lan	-9.42029
▁energía	-9.4219
▁hijos	-9.42406
▁teoría	-9.42427
▁imp	-9.42488
ny	-9.42488
▁tercera	-9.42536
▁26	-9.42542
enta	-9.42664
▁derechos	-9.42767
he	-9.42886
▁barcelona	-9.42924
▁dar	-9.43201
▁creación	-9.43297
tt	-9.43323
▁llegar	-9.43393
til	-9.43548
▁tema	-9.4358
▁marca	-9.43615
▁torre	-9.43684
ff	-9.43791
ham	-9.43886
tur	-9.4396
▁islas	-9.43999
▁dice	-9.44001
▁ello	-9.44011
▁valor	-9.44151
mina	-9.44161
▁problemas	-9.44275
▁sea	-9.44288
▁economía	-9.44352
▁gracias	-9.44363
▁indica	-9.44377
▁significa	-9.44504
▁habla	-9.44596
▁china	-9.44625
▁cuya	-9.44631
▁2003	-9.44684
▁barrio	-9.44777
pro	-9.44809
▁llama	-9.44844
yo	-9.44992
▁luz	-9.4502
vis	-9.4508
▁crea	-9.45176
▁influencia	-9.45347
▁hermano	-9.45366
▁federal	-9.45427
▁santiago	-9.45443
iendo	-9.45679
fre	-9.46004
▁situación	-9.46129
▁joven	-9.46187
pen	-9.46234
▁van	-9.46411
▁pública	-9.46427
▁plan	-9.46496
ix	-9.46556
lle	-9.46665
by	-9.46806
▁fase	-9.46896
mon	-9.46926
torio	-9.4695
▁congreso	-9.47139
sor	-9.47602
sto	-9.47695
▁unido	-9.47768
▁común	-9.47883
▁nunca	-9.47959
vin	-9.47973
▁elementos	-9.48056
▁ab	-9.48064
cle	-9.48534
nu	-9.487
llo	-9.49013
▁presencia	-9.49024
tina	-9.49132
▁destaca	-9.49218
eo	-9.49328
▁encontrar	-9.49376
gui	-9.49516
▁dicha	-9.49654
▁considera	-9.49661
lina	-9.49761
▁capacidad	-9.49774
fec	-9.49938
▁2018	-9.50052
▁italia	-9.50069
▁festival	-9.5011
gro	-9.50247
ard	-9.50251
▁noche	-9.50523
▁estadio	-9.50638
ang	-9.50666
▁incluye	-9.50867
▁col	-9.50891
ku	-9.50918
▁diversos	-9.50951
▁participó	-9.50968
op	-9.50998
pul	-9.51238
▁parís	-9.51249
▁miguel	-9.5137
▁mor	-9.51431
▁semana	-9.51436
▁única	-9.5144
▁llevó	-9.51518
ud	-9.51523
ö	-9.51825
ales	-9.51952
▁etc	-9.52044
mis	-9.52499
▁cámara	-9.52806
▁estar	-9.52878
▁municipal	-9.53069
▁2002	-9.53084
mu	-9.53145
ment	-9.53167
▁cultural	-9.53225
rán	-9.53268
▁alemán	-9.53297
vers	-9.53348
▁utiliza	-9.53512
▁realizar	-9.53548
▁medios	-9.53815
▁2001	-9.53832
▁objetivo	-9.5385
▁elegido	-9.53913
▁relaciones	-9.53928
▁fuerte	-9.53958
▁altura	-9.54045
▁tamaño	-9.54164
▁principio	-9.54188
▁actividades	-9.5422
▁fu	-9.54237
cel	-9.54389
▁ve	-9.54458
nio	-9.54623
▁defensa	-9.54643
▁podía	-9.54708
▁cantante	-9.54712
cap	-9.54761
rios	-9.5487
bel	-9.54897
lia	-9.54991
▁nuevos	-9.55011
▁administración	-9.5517
▁argentino	-9.55176
▁jugó	-9.55247
és	-9.55252
▁últimos	-9.55277
ico	-9.55481
▁bal	-9.55508
▁palacio	-9.55547
▁perú	-9.55588
ola	-9.55631
▁asociación	-9.55739
ella	-9.5576
ld	-9.55772
▁aproximadamente	-9.55815
▁india	-9.5588
ez	-9.55889
▁industria	-9.55896
▁seguridad	-9.56007
▁zonas	-9.56048
su	-9.56095
ense	-9.56272
▁realiza	-9.56427
▁ellas	-9.56463
nt	-9.56474
▁xx	-9.56486
▁salud	-9.56617
▁pequeño	-9.56746
▁dado	-9.56804
▁tercer	-9.57039
stra	-9.57044
▁amor	-9.57161
▁cabeza	-9.57232
rre	-9.57347
▁publicó	-9.57358
rie	-9.57411
▁gobernador	-9.57436
gre	-9.57478
▁1990	-9.57677
▁acción	-9.57769
▁corre	-9.57794
▁imagen	-9.57812
tada	-9.57865
gua	-9.57991
10	-9.58068
▁situado	-9.58146
esta	-9.58558
zar	-9.58847
▁v	-9.58872
▁tu	-9.58889
▁escribió	-9.58907
▁artes	-9.58924
ie	-9.58975
rí	-9.59214
▁nuevas	-9.59231
▁actualidad	-9.59295
▁brasil	-9.59309
tz	-9.59327
edi	-9.59391
▁29	-9.59397
cion	-9.594
her	-9.59424
▁temas	-9.5946
▁novela	-9.59481
▁existe	-9.59488
▁castillo	-9.5958
▁corte	-9.59593
▁francesa	-9.59818
▁xix	-9.59839
▁pin	-9.59868
▁deriva	-9.59869
ión	-9.59871
nar	-9.59995
camp	-9.6005
▁personaje	-9.60085
▁profesor	-9.60151
kin	-9.6027
▁corona	-9.60289
ü	-9.6029
▁matrimonio	-9.606
▁acerca	-9.60655
▁colombia	-9.60678
▁pen	-9.607
▁amplia	-9.60726
▁transporte	-9.6078
ito	-9.60793
▁sencillo	-9.60832
ot	-9.6095
▁idea	-9.61037
pas	-9.61115
▁algo	-9.6112
▁roma	-9.6143
▁logró	-9.61459
pp	-9.61504
ker	-9.6151
we	-9.61522
▁occidental	-9.61542
▁diversas	-9.61594
▁eu	-9.6161
▁or	-9.61637
▁distribución	-9.61642
bilidad	-9.61705
▁considerado	-9.61726
▁persona	-9.6178
▁ko	-9.61832
▁pie	-9.61869
ica	-9.61875
▁función	-9.61924
▁participación	-9.62022
▁paz	-9.6212
amiento	-9.62378
om	-9.62385
▁monte	-9.62508
▁etapa	-9.62569
▁venezuela	-9.62606
▁interés	-9.62612
▁dios	-9.62882
iva	-9.62938
▁mc	-9.63059
▁realizado	-9.6308
0,1	-9.6316
▁50	-9.63224
▁perteneciente	-9.63323
▁descripción	-9.63323
▁dijo	-9.6333
tel	-9.63465
▁ocupa	-9.63469
lis	-9.63598
▁electoral	-9.63685
izado	-9.63697
▁volvió	-9.63768
▁comercial	-9.63796
▁personajes	-9.63815
▁permite	-9.6385
▁fundación	-9.63878
▁decidió	-9.64105
toria	-9.64335
▁blanco	-9.64388
▁murió	-9.64454
▁inglaterra	-9.64523
lica	-9.64756
▁gu	-9.64884
▁esposa	-9.64923
▁plata	-9.64978
rico	-9.64981
▁termina	-9.64985
▁siete	-9.65046
▁iii	-9.65081
▁sector	-9.6513
▁independiente	-9.65139
▁sitio	-9.65141
▁pequeña	-9.65273
rro	-9.65321
rra	-9.65386
▁nacido	-9.65398
▁ven	-9.65437
dro	-9.65446
▁tropa	-9.65483
tí	-9.65504
▁cara	-9.65518
▁similar	-9.65536
▁afirma	-9.65572
cor	-9.65597
▁primeras	-9.65648
▁león	-9.65827
duc	-9.6587
▁figura	-9.6589
▁entrada	-9.66022
eta	-9.66057
▁material	-9.66212
bol	-9.66375
▁lengua	-9.66403
▁sala	-9.66444
dera	-9.66546
dó	-9.66556
▁clase	-9.66651
pol	-9.6666
mento	-9.66685
▁1999	-9.66789
▁acceso	-9.66815
▁conde	-9.66842
▁dan	-9.66871
hua	-9.66886
▁europea	-9.66909
sti	-9.66912
▁tales	-9.66992
▁jugar	-9.67037
cin	-9.67095
▁mitad	-9.67218
field	-9.67287
▁sistemas	-9.6733
33	-9.67444
▁importancia	-9.67583
tera	-9.67648
ara	-9.67662
▁sociales	-9.67727
cy	-9.67779
cep	-9.67883
mor	-9.67934
▁colegio	-9.68057
30	-9.68147
▁llevar	-9.68173
▁humanos	-9.68307
bles	-9.68393
▁pri	-9.68419
▁mac	-9.6842
▁velocidad	-9.68482
▁distancia	-9.68524
▁gol	-9.68616
▁casos	-9.68631
cta	-9.68652
gon	-9.68665
eros	-9.68889
▁academia	-9.68909
ins	-9.68944
▁respecto	-9.69013
▁j	-9.69094
11	-9.69104
-1	-9.69118
▁carga	-9.69138
36	-9.69151
34	-9.69276
▁permiti	-9.69299
38	-9.69328
ena	-9.69332
▁verano	-9.69456
cita	-9.69501
▁vista	-9.69531
bor	-9.69619
▁independencia	-9.69725
▁lanzado	-9.69731
▁busca	-9.69766
▁libros	-9.69793
berg	-9.69805
▁dakota	-9.69883
antes	-9.69946
▁económica	-9.70035
ken	-9.70155
▁crear	-9.70167
▁vuelta	-9.7022
▁niños	-9.7036
bar	-9.70376
stro	-9.7044
▁londres	-9.70453
▁debut	-9.70454
▁conoce	-9.70603
▁designado	-9.70669
▁diez	-9.70924
▁web	-9.70974
lógico	-9.71037
dra	-9.71043
jar	-9.71064
▁tecnología	-9.7109
20	-9.71106
ex	-9.71128
▁quienes	-9.71325
▁negro	-9.7134
▁40	-9.7134
ser	-9.71511
tero	-9.71592
ira	-9.71597
▁tratado	-9.7164
▁ocasiones	-9.71678
▁paul	-9.72018
▁junta	-9.72056
▁prepara	-9.72117
tón	-9.72117
▁fernando	-9.72152
▁ocho	-9.7234
▁armas	-9.72416
▁1998	-9.72427
▁anunció	-9.72458
aria	-9.72486
▁illinois	-9.72571
▁mano	-9.72576
▁puente	-9.72663
37	-9.72679
lé	-9.72691
▁gal	-9.72742
▁31	-9.72748
▁horas	-9.72824
▁inició	-9.72963
▁1980	-9.73004
▁hospital	-9.7307
42	-9.73081
ford	-9.73264
van	-9.73329
▁mando	-9.73336
tino	-9.73341
▁generalmente	-9.73378
▁sierra	-9.73398
▁dirigida	-9.7344
▁bur	-9.73584
▁películas	-9.73618
▁éste	-9.73687
▁opera	-9.73865
▁fuente	-9.73929
▁enrique	-9.74048
wood	-9.74081
entes	-9.74123
ador	-9.74137
▁menudo	-9.74163
tica	-9.74214
▁sentido	-9.74254
hu	-9.74354
60	-9.74379
▁japón	-9.74416
win	-9.74438
tivos	-9.74441
▁trayectoria	-9.74683
ts	-9.74693
▁campeón	-9.74714
ps	-9.74724
tru	-9.74749
▁comunicación	-9.74772
▁libertad	-9.74835
▁física	-9.74857
int	-9.74892
▁plantas	-9.74958
▁actor	-9.74965
▁verde	-9.7503
gos	-9.75031
for	-9.75063
▁referencia	-9.75102
rea	-9.7513
▁policía	-9.75163
éndose	-9.75168
té	-9.75178
ivo	-9.75179
▁ciencias	-9.75187
▁concepto	-9.75192
rlo	-9.75204
▁cm	-9.75239
▁visita	-9.75272
▁constitución	-9.75431
▁revolución	-9.75445
cía	-9.7554
▁partes	-9.75548
cto	-9.75553
0,2	-9.75609
▁derrota	-9.75637
40	-9.7564
▁golpe	-9.75657
▁quedó	-9.75734
▁pudo	-9.75737
▁nave	-9.75833
up	-9.75993
▁calidad	-9.76036
han	-9.76095
▁funciona	-9.76097
clo	-9.76162
met	-9.76186
ple	-9.76197
▁wa	-9.76311
▁memoria	-9.76442
▁unidad	-9.76555
able	-9.76671
dura	-9.7677
▁productos	-9.76775
▁condiciones	-9.76928
▁film	-9.76939
▁carácter	-9.77005
▁ad	-9.77061
▁reina	-9.77064
mal	-9.77072
▁ohio	-9.77074
▁sonido	-9.77235
illa	-9.77239
▁lugares	-9.7726
▁situada	-9.77288
americano	-9.77338
wo	-9.77343
az	-9.77351
sign	-9.77431
dri	-9.77456
▁rosa	-9.77501
ología	-9.77558
▁garcía	-9.77614
▁creado	-9.77646
bal	-9.77752
▁frontera	-9.77823
▁david	-9.77847
▁tenían	-9.77872
▁realidad	-9.77972
▁logra	-9.78006
ye	-9.78038
eri	-9.78092
▁clasificación	-9.78186
▁combate	-9.78199
ua	-9.78206
▁sufri	-9.78217
0	-9.78231
wal	-9.78382
lá	-9.78401
▁000	-9.78403
▁artistas	-9.78403
▁rep	-9.78534
▁ministerio	-9.78657
▁comercio	-9.78671
vel	-9.78859
tribu	-9.78869
ob	-9.78928
▁longitud	-9.79036
▁cadena	-9.79062
▁griego	-9.79165
75	-9.7925
▁minnesota	-9.79291
39	-9.79318
▁1996	-9.79406
▁santo	-9.79475
▁deportivo	-9.79571
▁1997	-9.79704
én	-9.79723
▁fo	-9.79789
▁cuanto	-9.79914
▁sha	-9.79998
▁jugadores	-9.80006
▁trabajos	-9.80031
▁todavía	-9.80068
▁metal	-9.8007
mes	-9.80111
▁lado	-9.80111
15	-9.80123
bin	-9.80134
▁poli	-9.80224
13	-9.80257
25	-9.80278
ph	-9.80307
▁1995	-9.8036
▁firma	-9.80426
▁blanca	-9.80574
pre	-9.8058
▁histórico	-9.8062
▁larga	-9.80672
▁incluyen	-9.80681
92	-9.80731
▁1970	-9.80757
▁habita	-9.80853
▁mejores	-9.8089
95	-9.81009
▁doble	-9.81011
▁0.2	-9.81013
▁empezó	-9.81112
▁0,0	-9.81292
▁empresas	-9.81309
▁emplea	-9.8131
▁ambas	-9.81429
▁azul	-9.81505
mini	-9.81514
▁diario	-9.81567
lio	-9.81572
55	-9.81764
▁resulta	-9.81847
vas	-9.81851
▁trabajó	-9.81869
nie	-9.82123
▁viaje	-9.82159
▁australia	-9.82202
titu	-9.82218
▁arquitectura	-9.82285
▁tipos	-9.8229
▁tele	-9.82335
arse	-9.82423
93	-9.82434
▁bru	-9.82443
▁conocimiento	-9.82452
▁italiano	-9.82463
▁favor	-9.82495
cá	-9.82539
▁contrato	-9.82561
pan	-9.82633
▁ganar	-9.8265
▁1992	-9.82666
▁formar	-9.82669
▁motor	-9.82756
bio	-9.82804
▁buena	-9.8283
▁comisión	-9.82915
▁carretera	-9.8293
▁bi	-9.82941
dero	-9.82968
41	-9.83039
pra	-9.83053
99	-9.83138
0.3	-9.83142
▁crecimiento	-9.83148
rom	-9.83154
▁literatura	-9.83171
▁trabajar	-9.83195
bia	-9.83279
▁mediados	-9.83285
▁templo	-9.83339
▁celebra	-9.83372
44	-9.83379
▁1.	-9.83381
▁falta	-9.83397
▁palabra	-9.83455
▁propiedad	-9.8348
▁corta	-9.835
80	-9.83532
▁california	-9.83677
▁fer	-9.83688
▁inicia	-9.83853
▁maestro	-9.83919
▁escritor	-9.83988
96	-9.84006
esco	-9.84057
▁señor	-9.84132
▁resultados	-9.84179
one	-9.84277
94	-9.8429
47	-9.84298
dieron	-9.84329
▁tomar	-9.84415
▁premios	-9.84433
tá	-9.84438
▁desarrolla	-9.8444
▁terminó	-9.84454
rum	-9.84483
▁1994	-9.84501
▁post	-9.84622
▁voz	-9.84653
▁jesús	-9.84673
▁efecto	-9.847
▁particular	-9.84713
▁rojo	-9.84757
▁usa	-9.84784
46	-9.84915
▁ciencia	-9.84916
▁dejó	-9.84995
jas	-9.85056
▁jorge	-9.85077
▁4.	-9.85135
▁ir	-9.85213
tus	-9.85315
▁militares	-9.85391
▁escrito	-9.85408
gráfica	-9.85433
▁masa	-9.85473
▁aire	-9.85509
▁mayores	-9.85519
mbre	-9.85567
▁papa	-9.85571
▁jóvenes	-9.85592
cip	-9.85731
▁episodio	-9.8579
▁cree	-9.85808
▁ataque	-9.85917
▁nacionales	-9.85919
▁católica	-9.85938
▁clasifica	-9.85961
dar	-9.85978
▁clima	-9.86167
rd	-9.8619
▁internacionales	-9.86226
cam	-9.86344
▁biblioteca	-9.86359
ide	-9.86383
▁numerosos	-9.86533
▁1991	-9.8658
▁áreas	-9.86597
▁tierras	-9.86604
▁mantener	-9.86782
▁escala	-9.86843
▁banco	-9.8689
medi	-9.86931
▁marcha	-9.86933
52	-9.87001
▁sigue	-9.87032
mpa	-9.8705
▁obliga	-9.87125
▁crítica	-9.87301
pal	-9.874
▁británico	-9.8743
mé	-9.87539
▁obispo	-9.87608
▁conquista	-9.87708
▁será	-9.87772
▁mm	-9.87815
rina	-9.87952
▁cer	-9.87956
▁disputa	-9.88071
▁izquierda	-9.88099
▁pablo	-9.8815
▁formó	-9.88159
▁alcanza	-9.88191
ent	-9.88238
var	-9.88277
▁reserva	-9.88285
uta	-9.88353
▁tradicional	-9.88397
▁juega	-9.88413
▁lanzamiento	-9.88465
▁técnica	-9.88485
▁oriental	-9.88522
43	-9.88596
▁comienza	-9.88606
wi	-9.88619
bus	-9.88661
▁genera	-9.8869
tec	-9.88718
▁llega	-9.88757
ah	-9.88769
▁obtener	-9.88771
▁inicio	-9.8889
▁micro	-9.88959
▁cómo	-9.8899
▁código	-9.89013
▁minutos	-9.8902
ible	-9.8905
▁dr	-9.89174
▁pasar	-9.89194
▁queda	-9.89198
hen	-9.89225
▁denomina	-9.89506
▁experiencia	-9.89537
menta	-9.89572
▁consiste	-9.89591
▁catedral	-9.89614
▁gar	-9.89619
▁construido	-9.89742
vio	-9.89782
▁actriz	-9.89819
14	-9.89832
65	-9.89839
0,3	-9.89946
▁animales	-9.89967
mir	-9.90097
net	-9.90172
mus	-9.90177
fra	-9.90307
▁suelo	-9.90449
▁carta	-9.90455
▁locales	-9.90526
▁extra	-9.90577
ct	-9.90628
▁unidades	-9.90663
▁entrega	-9.90676
▁peso	-9.9073
51	-9.90804
cher	-9.90829
▁estudiantes	-9.90964
78	-9.90988
mat	-9.91044
48	-9.9105
izada	-9.91054
▁pueblos	-9.91135
▁cambios	-9.91198
▁emperador	-9.9123
49	-9.91333
▁domingo	-9.91373
▁conserva	-9.91426
▁utilizado	-9.91435
▁colabora	-9.91454
▁texas	-9.91507
▁castilla	-9.91518
▁fuentes	-9.91563
▁1993	-9.91568
▁existencia	-9.91635
ólogo	-9.91661
▁extremo	-9.91713
▁presentó	-9.91726
▁regular	-9.91749
▁príncipe	-9.91791
▁mexicano	-9.91832
▁posterior	-9.91851
▁manos	-9.91861
▁palabras	-9.92014
▁produjo	-9.92103
▁iv	-9.9213
▁mel	-9.92138
▁británica	-9.92186
▁piedra	-9.92254
izó	-9.92367
dal	-9.92385
▁city	-9.92399
▁pasado	-9.92506
▁funciones	-9.92607
▁contenido	-9.92635
sp	-9.92674
tir	-9.92694
▁rusia	-9.92821
▁nuevamente	-9.92836
rón	-9.92848
▁misuri	-9.92861
tic	-9.92916
pur	-9.92939
70	-9.93013
▁1960	-9.93018
▁futuro	-9.93018
well	-9.9303
▁consiguió	-9.93057
ios	-9.93093
▁líder	-9.93116
fon	-9.93152
pel	-9.93173
ónica	-9.93216
▁aeropuerto	-9.9323
35	-9.93289
▁provoca	-9.935
64	-9.93579
▁ningún	-9.93617
▁capitán	-9.9367
▁acu	-9.93691
ería	-9.937
lus	-9.93745
▁escrita	-9.93888
▁núcleo	-9.93924
▁emp	-9.94058
23	-9.94078
▁flores	-9.94109
▁guatemala	-9.94112
ep	-9.94118
my	-9.94125
way	-9.94133
62	-9.94195
▁pon	-9.94199
▁nu	-9.94273
▁basado	-9.94281
dic	-9.94294
die	-9.94325
▁naturaleza	-9.94345
▁evitar	-9.94456
▁justicia	-9.94475
54	-9.94505
izar	-9.94544
▁nuestra	-9.94555
▁hor	-9.94623
▁necesario	-9.9465
▁comité	-9.94652
▁iowa	-9.94668
▁kilómetros	-9.94701
▁reconocimiento	-9.94725
▁completa	-9.9474
▁robert	-9.94746
▁utilizar	-9.94784
▁programas	-9.94812
▁contiene	-9.9482
▁regional	-9.94924
▁ronda	-9.94956
▁goles	-9.94991
▁continua	-9.95095
activo	-9.95195
ller	-9.95211
53	-9.95354
0.5	-9.95386
▁recursos	-9.95412
mica	-9.95426
▁españoles	-9.95524
12	-9.95538
▁ambiente	-9.95592
▁amenaza	-9.95598
▁políticas	-9.95611
ula	-9.9565
▁hermanos	-9.95661
▁creó	-9.95688
▁formado	-9.95696
▁respuesta	-9.9572
▁cuarto	-9.9574
▁desarrollado	-9.95782
iano	-9.95802
dad	-9.95817
▁hol	-9.95836
▁hubo	-9.95865
▁artista	-9.95879
▁martín	-9.95894
teo	-9.95908
▁1989	-9.95935
▁efectos	-9.95977
▁titular	-9.96024
udi	-9.96029
▁tuvieron	-9.96041
oc	-9.96042
rec	-9.96066
58	-9.96124
gio	-9.96143
ther	-9.96163
▁recibe	-9.96173
▁frecuencia	-9.96226
▁caracteriza	-9.96233
ice	-9.96387
ling	-9.96456
nde	-9.96555
▁políticos	-9.96765
mann	-9.96772
▁padres	-9.96789
▁análisis	-9.96792
inos	-9.96795
▁ferrocarril	-9.96872
ona	-9.97091
▁pareja	-9.97094
▁secretario	-9.97103
▁inicialmente	-9.97111
gado	-9.9723
▁constante	-9.97245
▁multi	-9.9725
▁práctica	-9.97267
24	-9.97273
▁distintos	-9.97332
▁regiones	-9.97335
▁apareció	-9.97443
fac	-9.97533
und	-9.97536
ev	-9.97605
▁hora	-9.97685
esca	-9.9771
▁presente	-9.9775
▁madera	-9.97869
hel	-9.97924
▁estudió	-9.97926
18	-9.9803
pin	-9.98034
▁reforma	-9.98075
▁alcalde	-9.9815
ist	-9.98203
16	-9.98232
▁llegada	-9.98276
▁restos	-9.98277
91	-9.98281
dora	-9.98307
▁artículo	-9.98329
▁pat	-9.98435
stan	-9.98502
▁aquel	-9.98506
▁naciones	-9.98509
▁halla	-9.98543
vir	-9.98566
ónico	-9.98585
▁tur	-9.986
ima	-9.98606
▁estren	-9.98627
tivas	-9.98676
▁obstan	-9.98689
vía	-9.98723
est	-9.98763
▁objeto	-9.98784
lie	-9.98852
▁complejo	-9.98866
iana	-9.98911
ló	-9.99041
uri	-9.9912
▁vio	-9.99136
▁medalla	-9.99146
▁formas	-9.99211
nal	-9.99234
mia	-9.9924
▁fal	-9.99246
▁industrial	-9.99319
▁parece	-9.99337
▁avenida	-9.99405
-2	-9.99586
▁estima	-9.99595
▁alemana	-9.99613
oli	-9.9962
▁anteriores	-9.99635
▁ref	-9.99689
▁franco	-9.99789
ire	-9.99907
▁video	-9.99912
▁lake	-9.99945
▁capa	-9.99947
tis	-9.99965
ip	-10.0001
▁numerosas	-10.0004
▁tradición	-10.0007
ant	-10.0009
nor	-10.001
illo	-10.0014
▁crisis	-10.0023
▁autores	-10.0024
▁salvador	-10.0024
mit	-10.0026
bil	-10.003
part	-10.0042
▁labor	-10.0042
ancia	-10.0043
▁pequeños	-10.0043
iz	-10.0043
▁líneas	-10.0044
▁aguas	-10.0046
▁tratamiento	-10.0055
▁pocos	-10.0071
canta	-10.0073
▁har	-10.0076
▁áfrica	-10.0078
▁vuelo	-10.0086
▁doctor	-10.0092
▁nada	-10.01
45	-10.0105
▁george	-10.0108
▁clásico	-10.0111
dé	-10.0123
▁máximo	-10.0128
▁alguna	-10.013
▁intenta	-10.0135
▁dirigido	-10.014
59	-10.0147
tario	-10.0147
▁problema	-10.0149
▁pos	-10.0159
puso	-10.0163
▁régimen	-10.0163
21	-10.0175
▁planeta	-10.0175
uel	-10.0181
▁futbolista	-10.0185
85	-10.0186
▁comp	-10.0189
▁60	-10.0192
▁distintas	-10.0203
19	-10.0207
90	-10.0211
▁periódico	-10.0212
▁oficiales	-10.0214
▁virgen	-10.0214
▁tomó	-10.022
▁fuego	-10.0224
▁suma	-10.0225
▁haciendo	-10.0231
▁james	-10.0234
▁humana	-10.0245
▁ruso	-10.0247
▁prueba	-10.025
▁bon	-10.0255
sio	-10.0258
sia	-10.0263
▁gas	-10.0265
rena	-10.0272
▁ésta	-10.0279
jes	-10.028
▁pista	-10.028
▁ruta	-10.0282
▁facultad	-10.0284
▁atención	-10.0288
▁volver	-10.0288
▁punta	-10.029
▁uruguay	-10.0291
▁texto	-10.0291
22	-10.0292
ñ	-10.0293
▁asamblea	-10.0295
▁produce	-10.03
▁ac	-10.0302
▁washington	-10.0309
▁ofrece	-10.0316
▁pop	-10.032
▁vivo	-10.0322
eg	-10.0324
▁tour	-10.0326
▁wi	-10.0327
spec	-10.0327
▁lago	-10.0328
▁exterior	-10.0331
▁fil	-10.0333
▁vía	-10.0352
pone	-10.0352
▁periodista	-10.0359
▁activa	-10.0364
▁confi	-10.0367
bert	-10.037
ski	-10.0373
▁difícil	-10.0373
▁valencia	-10.0375
▁marco	-10.0377
▁informa	-10.0381
32	-10.0382
▁sola	-10.0389
▁técnico	-10.0397
▁top	-10.04
cional	-10.0403
▁mira	-10.0409
▁algún	-10.0409
line	-10.0413
▁demás	-10.0416
▁soldados	-10.0425
▁basada	-10.0428
▁conferencia	-10.0433
ap	-10.0437
▁moderna	-10.0441
▁proporciona	-10.0442
▁bio	-10.0444
ure	-10.0445
vol	-10.0447
17	-10.0453
▁mantuvo	-10.0458
88	-10.0475
▁lópez	-10.0476
rri	-10.0476
dis	-10.0478
ves	-10.048
▁asimism	-10.0482
if	-10.0483
▁consecuencia	-10.0485
let	-10.0485
▁prensa	-10.0487
▁células	-10.0489
▁fondo	-10.0489
▁fines	-10.0494
ñe	-10.0497
▁duque	-10.0501
vent	-10.0515
cua	-10.0517
▁explica	-10.0522
▁propuesta	-10.0524
68	-10.0535
ini	-10.0544
hal	-10.055
don	-10.0559
▁eje	-10.0572
0.000	-10.0584
31	-10.0588
▁mono	-10.0589
ou	-10.0592
▁entrenador	-10.0595
gur	-10.0604
▁foto	-10.0604
▁br	-10.0606
avi	-10.0607
mul	-10.0616
▁interpreta	-10.0626
din	-10.0626
rich	-10.0628
▁espera	-10.0634
▁mont	-10.0646
ato	-10.0648
ética	-10.0653
ney	-10.066
▁probablemente	-10.0664
glo	-10.0668
▁encontraba	-10.0671
▁meta	-10.068
vie	-10.0684
▁versiones	-10.0684
▁contaba	-10.07
▁humano	-10.0713
▁1986	-10.0715
▁usar	-10.0716
▁salida	-10.0716
▁aquella	-10.0717
miti	-10.0719
▁votos	-10.0726
▁lanzó	-10.0728
tch	-10.0731
▁limita	-10.0734
▁completo	-10.0736
▁alcanzó	-10.074
butó	-10.0741
▁90	-10.0748
cru	-10.0748
▁pertenece	-10.075
▁ninguna	-10.0751
▁formato	-10.0755
mática	-10.0758
0.6	-10.0761
▁ana	-10.077
ris	-10.0778
mico	-10.078
.1	-10.079
▁enfermedad	-10.0791
▁revela	-10.0791
▁edificios	-10.0795
▁temperatura	-10.0798
▁denominado	-10.08
76	-10.0806
▁bandera	-10.0813
▁continuó	-10.0817
▁funda	-10.0824
tr	-10.0824
▁show	-10.0831
▁lenguaje	-10.0837
mó	-10.084
▁80	-10.0842
▁gente	-10.0842
▁desarroll	-10.0843
▁ciclo	-10.0843
89	-10.0844
28	-10.0848
▁máxima	-10.0858
▁bolivia	-10.0862
▁hicieron	-10.0875
▁1987	-10.0876
▁wisconsin	-10.0876
▁conocer	-10.0877
ue	-10.0887
mba	-10.0892
▁filosofía	-10.0914
▁contacto	-10.0915
29	-10.0917
▁1988	-10.0918
idas	-10.0921
▁producto	-10.0935
▁razón	-10.0939
▁poeta	-10.094
▁proyectos	-10.0946
▁incorpora	-10.0947
▁gua	-10.0948
▁ayuntamiento	-10.0951
divi	-10.0952
▁pintura	-10.0953
▁anteriormente	-10.0953
▁hacen	-10.0962
▁hermana	-10.0962
▁competencia	-10.0965
quí	-10.097
tran	-10.0977
tico	-10.0978
▁venta	-10.0979
▁producido	-10.0989
cl	-10.0995
▁william	-10.1001
▁encontr	-10.1005
▁bastante	-10.1006
▁evento	-10.1006
▁ascenso	-10.1012
ov	-10.1013
▁arquitecto	-10.1017
▁west	-10.1017
▁tabla	-10.1018
▁fla	-10.1022
idades	-10.1024
▁mari	-10.1031
▁fundada	-10.1034
▁decreto	-10.1039
74	-10.104
▁we	-10.1047
▁naturales	-10.1047
▁urbano	-10.105
▁park	-10.1053
▁1982	-10.1057
▁hacía	-10.1058
ray	-10.1064
▁1985	-10.1072
▁dominio	-10.1072
▁falleció	-10.1075
tha	-10.1086
▁dólares	-10.1098
▁económico	-10.1098
ier	-10.1098
67	-10.1098
▁usado	-10.1099
▁sección	-10.1105
▁gonzález	-10.1112
▁derecha	-10.1116
▁operaciones	-10.1129
▁pequeñas	-10.113
▁colección	-10.1137
▁añadi	-10.1139
san	-10.114
▁habría	-10.1142
▁señala	-10.1142
lógica	-10.1154
▁operación	-10.116
▁ríos	-10.1166
66	-10.1167
▁caza	-10.1182
▁córdoba	-10.1184
mont	-10.1199
26	-10.1206
▁niño	-10.1207
cula	-10.1214
▁inferior	-10.1217
▁incluido	-10.1217
table	-10.1218
▁sam	-10.1219
▁amigo	-10.1228
▁basa	-10.1231
▁imágenes	-10.1235
apa	-10.1237
▁marina	-10.1239
27	-10.1245
▁felipe	-10.1248
▁potencia	-10.1249
▁aquellos	-10.1258
▁sirvi	-10.126
gé	-10.127
▁famoso	-10.1274
ár	-10.1279
▁gestión	-10.1279
pira	-10.1283
the	-10.1283
▁cuba	-10.1284
▁clubes	-10.1285
▁interna	-10.1287
▁federación	-10.1288
▁acepta	-10.129
▁observa	-10.1293
▁producir	-10.1298
▁oficialmente	-10.13
▁simple	-10.1307
gh	-10.1317
mol	-10.1323
▁comunista	-10.1324
▁declara	-10.1326
56	-10.1333
▁protección	-10.1334
ores	-10.1335
▁acciones	-10.1338
▁seguir	-10.1338
▁adelante	-10.134
▁epi	-10.1343
▁estrella	-10.1344
tia	-10.1347
ali	-10.1355
ey	-10.1359
▁inc	-10.1363
mbo	-10.1363
▁argumento	-10.1363
57	-10.1363
▁escenario	-10.1369
▁publicación	-10.1377
▁cuenca	-10.1396
▁directamente	-10.14
▁alianza	-10.1404
▁parroquia	-10.1406
cus	-10.1407
▁conflicto	-10.1413
▁colonia	-10.1414
▁1983	-10.142
▁fc	-10.1428
vil	-10.1431
jan	-10.1432
▁grado	-10.1441
▁regresó	-10.1442
63	-10.1445
ug	-10.1446
▁socialista	-10.1456
▁presidencia	-10.1456
61	-10.146
▁rápidamente	-10.146
▁gana	-10.1467
▁pronto	-10.1468
tendi	-10.147
▁capilla	-10.1471
▁playa	-10.1473
▁representación	-10.1475
qua	-10.1481
▁pérdida	-10.1483
qu	-10.1493
▁medicina	-10.1496
ab	-10.1496
▁guardia	-10.1499
▁exposición	-10.1499
▁resistencia	-10.1506
▁1950	-10.1511
▁encuentro	-10.1514
▁jean	-10.1515
▁200	-10.1517
ér	-10.1519
▁método	-10.1524
▁provincial	-10.1531
▁construir	-10.1534
▁qué	-10.1535
▁autoridades	-10.1535
▁implica	-10.1539
lea	-10.1546
pá	-10.1547
▁coloca	-10.1552
▁mala	-10.1553
▁breve	-10.1561
▁dinero	-10.1563
▁you	-10.1563
▁deben	-10.1564
▁escudo	-10.1565
▁compuesta	-10.1571
▁partida	-10.1574
aban	-10.1575
▁parlamento	-10.1577
cito	-10.1581
▁considerada	-10.1582
▁niveles	-10.1586
▁corea	-10.1586
art	-10.1586
equi	-10.1588
▁consta	-10.1589
icia	-10.1591
▁generación	-10.1593
72	-10.1594
▁menores	-10.1598
tando	-10.1599
▁decora	-10.1601
▁comuna	-10.1601
americana	-10.1602
▁responsable	-10.1602
▁canadá	-10.1602
▁idioma	-10.1613
▁indiana	-10.1616
gia	-10.1624
▁histórica	-10.1629
▁objetos	-10.1629
▁fundado	-10.1632
▁composición	-10.1633
▁visto	-10.1633
nis	-10.1633
cent	-10.1634
-18	-10.1636
dam	-10.1636
▁dedica	-10.1639
stre	-10.164
▁extensión	-10.1641
86	-10.1642
▁entra	-10.1643
▁corto	-10.1644
▁fundó	-10.1646
▁nación	-10.1651
chu	-10.1653
87	-10.1656
fin	-10.1656
cien	-10.1657
▁estableció	-10.1658
▁creada	-10.1664
▁aumento	-10.167
▁mantiene	-10.1673
aparición	-10.168
▁estándar	-10.1682
▁clave	-10.1684
▁técnicas	-10.169
84	-10.17
▁apertura	-10.1705
▁alcanzar	-10.1706
▁escena	-10.1706
▁cuadro	-10.1707
77	-10.1708
▁plano	-10.1715
▁privada	-10.172
▁unió	-10.1723
▁publicada	-10.1725
▁mas	-10.1733
▁tiempos	-10.1733
▁ángel	-10.175
▁leyes	-10.175
▁xviii	-10.1753
▁far	-10.1754
▁entrevista	-10.1755
▁europeo	-10.176
▁misión	-10.1762
▁negra	-10.1765
lado	-10.177
ías	-10.1775
ificación	-10.1784
▁comparti	-10.1785
▁mexicana	-10.1786
▁abierto	-10.1786
▁tribunal	-10.1788
▁data	-10.1791
▁parti	-10.1792
▁iba	-10.1797
nica	-10.1799
▁casas	-10.1801
▁alfonso	-10.1803
▁digital	-10.1808
▁amigos	-10.181
jos	-10.181
bos	-10.1814
nca	-10.1818
arios	-10.1822
lf	-10.183
hil	-10.1841
▁1984	-10.1845
▁clases	-10.1857
af	-10.1857
▁forman	-10.1859
▁participa	-10.186
▁elección	-10.1861
▁hojas	-10.1863
▁apo	-10.1863
▁suficiente	-10.1864
ek	-10.1864
▁fernández	-10.1868
▁materiales	-10.1877
▁directo	-10.1889
arre	-10.1898
▁bel	-10.1898
▁nacimiento	-10.19
sha	-10.1904
▁gui	-10.1904
▁decisión	-10.1908
▁reciente	-10.1909
neo	-10.1916
▁vuelve	-10.1921
log	-10.1924
▁bra	-10.1924
▁antiguos	-10.1924
▁deportiva	-10.1932
▁she	-10.1937
▁generales	-10.194
▁península	-10.1942
▁institución	-10.1943
▁destino	-10.1943
▁lenguas	-10.1957
ático	-10.1959
97	-10.1961
▁colores	-10.1962
nto	-10.1964
▁marc	-10.1967
▁variedad	-10.1975
▁destacan	-10.1976
▁come	-10.1977
yu	-10.1985
69	-10.1988
ft	-10.1989
▁val	-10.1994
quis	-10.1994
▁buen	-10.1995
▁conecta	-10.1997
71	-10.1999
▁participar	-10.1999
▁cultivo	-10.2005
cí	-10.2012
ografía	-10.2024
adores	-10.2027
▁eventos	-10.2028
▁árabe	-10.2029
▁1978	-10.2034
rick	-10.2039
82	-10.2041
▁toca	-10.2045
▁hábitat	-10.2048
▁rodríguez	-10.2048
gin	-10.2054
sch	-10.2054
esa	-10.2061
▁oposición	-10.2069
▁suele	-10.2069
▁llegaron	-10.2074
lón	-10.2076
off	-10.2077
▁casó	-10.2081
▁rafael	-10.2083
▁luna	-10.2091
.0	-10.2095
pl	-10.2096
ata	-10.2097
ei	-10.2101
▁cambia	-10.2102
rin	-10.2106
▁arma	-10.2108
▁comandante	-10.2109
▁soviética	-10.2109
▁cerro	-10.2112
▁1979	-10.2114
▁ubica	-10.2114
▁sar	-10.2116
ben	-10.2117
98	-10.2119
▁aquí	-10.2122
▁ámbito	-10.2123
▁expresa	-10.2126
▁rica	-10.2134
▁promedio	-10.2137
cido	-10.214
▁orquesta	-10.2141
▁conseguir	-10.215
mático	-10.2151
▁alberto	-10.216
▁míchigan	-10.2164
tie	-10.2164
▁compra	-10.2164
▁eso	-10.2172
79	-10.2176
burg	-10.2177
lito	-10.2186
▁von	-10.2189
sky	-10.2204
▁pruebas	-10.2205
▁gradu	-10.2206
▁integra	-10.2214
bul	-10.2215
▁agricultura	-10.2224
ian	-10.2227
▁instituciones	-10.2228
▁declaró	-10.2229
▁críticas	-10.2232
▁universal	-10.2235
▁reconocido	-10.2239
▁necesidad	-10.2241
▁dejar	-10.2241
tsu	-10.2246
▁narra	-10.2246
lico	-10.2251
01	-10.2251
▁escuelas	-10.2257
▁señal	-10.2259
▁eduardo	-10.226
▁modelos	-10.2264
▁actuación	-10.2269
▁sab	-10.2283
pica	-10.2286
terra	-10.2293
▁lima	-10.2295
▁1981	-10.2296
xo	-10.2297
▁curso	-10.2299
▁fan	-10.23
▁sevilla	-10.2305
▁ganado	-10.2316
▁isabel	-10.2321
▁ama	-10.2322
▁trabajadores	-10.2323
▁enfrenta	-10.2325
▁1976	-10.2328
▁romano	-10.2329
▁campos	-10.2331
▁concurso	-10.2333
mbra	-10.2342
▁nueve	-10.2342
▁asociado	-10.2343
▁autónoma	-10.2344
pet	-10.2344
▁residencia	-10.2347
▁tom	-10.2361
ani	-10.2367
▁ataca	-10.2369
▁respectivamente	-10.2375
sim	-10.2376
▁world	-10.2378
▁científica	-10.2385
▁israel	-10.2388
▁aumenta	-10.2388
81	-10.2391
▁acaba	-10.2391
▁saint	-10.2391
dí	-10.2398
▁0,4	-10.2398
▁portugal	-10.2398
▁convierte	-10.24
▁valores	-10.24
▁austria	-10.2402
▁70	-10.2402
▁refiere	-10.2405
▁posibilidad	-10.2407
▁sabe	-10.2408
form	-10.241
anda	-10.2418
▁letras	-10.2421
▁siglos	-10.2422
▁calles	-10.2422
cida	-10.2425
▁dura	-10.2426
ral	-10.2436
anos	-10.2441
guer	-10.2445
osos	-10.2445
gel	-10.2451
▁sch	-10.2453
▁mejora	-10.2453
mun	-10.2462
aco	-10.2467
▁presentado	-10.2467
▁neu	-10.247
aya	-10.2481
▁entró	-10.2483
▁comenzaron	-10.2485
▁musicales	-10.2488
rus	-10.2497
pé	-10.2497
▁editorial	-10.2497
ō	-10.2505
▁prohibi	-10.2505
yer	-10.2507
83	-10.2507
▁diego	-10.2509
▁solamente	-10.2511
ias	-10.2513
arias	-10.252
▁trabaja	-10.2522
▁riesgo	-10.2525
▁motivo	-10.2528
▁av	-10.2532
▁regreso	-10.2534
▁1973	-10.2536
▁1975	-10.2538
tla	-10.255
à	-10.2551
▁pese	-10.2552
grado	-10.256
▁green	-10.2569
▁xvi	-10.2576
ite	-10.2579
▁internet	-10.2581
▁médico	-10.2585
▁ku	-10.2585
08	-10.2586
▁tenido	-10.2588
▁viejo	-10.2595
▁reyes	-10.2595
▁completamente	-10.2595
09	-10.2601
▁cata	-10.2609
▁estatal	-10.2611
▁candidato	-10.2617
▁inf	-10.2619
▁paraguay	-10.2628
pos	-10.263
illas	-10.2633
▁provincias	-10.2634
hon	-10.2635
▁patrimonio	-10.2639
▁informe	-10.2643
▁puerta	-10.2643
▁0.4	-10.2646
▁esos	-10.265
▁aplica	-10.2653
▁centra	-10.2653
▁ecuador	-10.2656
▁vídeo	-10.2658
▁hechos	-10.2661
mí	-10.2666
▁demanda	-10.2668
▁órgano	-10.2669
▁diferente	-10.267
▁bloque	-10.2671
▁exp	-10.2673
cano	-10.2678
▁invierno	-10.2682
▁fundador	-10.2684
73	-10.2692
▁ingeniero	-10.2695
▁natal	-10.2697
▁flota	-10.2701
▁separa	-10.2703
▁capaz	-10.2709
pac	-10.271
nico	-10.2714
▁0.7	-10.2719
▁química	-10.2721
lista	-10.2727
▁domina	-10.2727
sur	-10.2727
▁territorios	-10.2738
ori	-10.2742
▁altitud	-10.2746
▁artículos	-10.2752
idos	-10.2756
▁35	-10.2765
▁decide	-10.2767
▁terror	-10.2774
▁cosas	-10.2775
tú	-10.2778
lor	-10.2782
▁solar	-10.2784
▁creek	-10.2785
▁fiesta	-10.2786
▁north	-10.2789
▁protagonista	-10.2793
pio	-10.2794
▁haya	-10.2801
▁permanente	-10.2802
▁secundaria	-10.2804
▁entorno	-10.2804
▁términos	-10.2804
gó	-10.2807
ela	-10.2807
▁piloto	-10.281
▁plataforma	-10.2811
▁continuación	-10.2815
▁global	-10.2815
▁materia	-10.2817
▁religión	-10.2819
cón	-10.2819
▁sangre	-10.2826
▁rob	-10.2828
▁grabado	-10.2847
▁rango	-10.2848
nza	-10.2849
▁imperial	-10.2849
▁pérez	-10.2855
ik	-10.2855
▁legal	-10.2857
▁evolución	-10.2859
bur	-10.2864
▁compara	-10.2868
▁normal	-10.2871
▁daniel	-10.2871
lación	-10.2872
▁trasladó	-10.2881
▁arena	-10.2892
▁star	-10.2893
▁mensaje	-10.2895
▁similares	-10.2895
▁record	-10.29
▁canto	-10.2902
▁específica	-10.2902
▁cercano	-10.2903
osas	-10.2904
ística	-10.2912
nova	-10.2912
▁michael	-10.2914
▁guitarra	-10.2916
▁instalaciones	-10.2917
▁arkansas	-10.2919
cir	-10.292
▁titulado	-10.2925
ético	-10.2934
▁captura	-10.2938
▁cabe	-10.2948
ora	-10.2948
▁estrellas	-10.2951
▁asia	-10.2956
▁florida	-10.2958
ib	-10.2961
▁cataluña	-10.2961
è	-10.2972
▁femenino	-10.2973
▁estudia	-10.2974
taria	-10.2981
▁construida	-10.2984
bili	-10.2986
▁dirigió	-10.2988
flu	-10.2998
▁utilizada	-10.2998
uu	-10.3001
zos	-10.3002
▁comarca	-10.3004
▁intento	-10.3007
▁perdió	-10.3009
▁jon	-10.301
▁propiedades	-10.3012
isa	-10.3015
▁1972	-10.3016
▁torno	-10.3017
▁nombres	-10.302
▁semanas	-10.302
▁1968	-10.302
▁bahía	-10.3021
▁pala	-10.3037
▁títulos	-10.3039
arte	-10.3039
▁colaboración	-10.3042
▁ejecutivo	-10.3042
▁claro	-10.3043
▁martin	-10.3044
▁software	-10.3054
▁familias	-10.3059
▁1974	-10.3065
▁escribir	-10.3065
▁latín	-10.3067
▁mata	-10.3068
▁ganador	-10.3081
05	-10.3082
tán	-10.3093
nan	-10.3095
▁compositor	-10.3096
▁guillermo	-10.3104
▁nebraska	-10.311
▁adquiri	-10.3112
▁flor	-10.3113
▁posteriores	-10.3114
▁quinta	-10.3118
▁ideas	-10.3124
town	-10.3125
▁contrario	-10.3127
▁coronel	-10.3133
vic	-10.3135
▁impuls	-10.3135
▁cierto	-10.314
ega	-10.3141
▁bosque	-10.3142
▁1930	-10.3145
rada	-10.3147
▁ángeles	-10.3147
▁caída	-10.3156
▁compone	-10.3158
▁siguió	-10.3158
▁descrita	-10.316
▁acompaña	-10.3161
▁nuestro	-10.3166
▁publica	-10.3166
▁cuarta	-10.317
mio	-10.3173
stein	-10.3173
▁river	-10.319
▁comunidades	-10.3192
ii	-10.3195
▁rechaza	-10.32
▁angel	-10.3201
▁1977	-10.3202
cé	-10.3203
ium	-10.3204
▁abogado	-10.3204
▁socio	-10.3206
indi	-10.3207
▁charles	-10.3207
ndi	-10.3214
plu	-10.3215
▁kansas	-10.3215
▁metro	-10.3216
▁encontrado	-10.322
▁peligro	-10.3221
bat	-10.3221
▁turismo	-10.3231
plan	-10.3237
▁doce	-10.3241
▁temporadas	-10.3242
▁escultura	-10.3244
▁expedición	-10.3245
▁centros	-10.3249
cub	-10.3253
nne	-10.3253
▁aplicación	-10.3254
▁martínez	-10.3255
▁montaña	-10.3261
▁liberal	-10.3263
▁dando	-10.3271
cc	-10.3271
▁ancho	-10.3286
ä	-10.3286
▁audiencia	-10.3288
▁1940	-10.3292
▁existi	-10.3297
▁combina	-10.3297
▁fábrica	-10.3298
ers	-10.33
sper	-10.3301
ístico	-10.3301
▁metropolitana	-10.3304
od	-10.3307
icos	-10.3307
▁south	-10.3315
▁accidente	-10.3316
▁oriente	-10.3317
▁corazón	-10.332
sin	-10.3326
▁anima	-10.3326
gada	-10.3327
▁abierta	-10.334
cau	-10.334
▁normalmente	-10.3341
▁hotel	-10.3341
▁describe	-10.3342
▁debía	-10.3346
▁aleja	-10.3347
▁st	-10.3351
▁war	-10.3357
dan	-10.3358
▁pico	-10.3364
02	-10.3368
▁peter	-10.3375
▁radical	-10.3381
▁conocidos	-10.3388
▁investigaciones	-10.3394
▁gla	-10.3394
▁juventud	-10.3397
▁productor	-10.3401
▁señora	-10.3406
▁presentan	-10.3411
▁ee	-10.3414
04	-10.3416
tem	-10.3421
eto	-10.3422
zan	-10.3424
ilo	-10.3426
▁terreno	-10.3426
▁fenómeno	-10.3429
▁caballero	-10.3441
▁aérea	-10.3447
▁richard	-10.3452
▁enseñanza	-10.3454
▁emb	-10.3456
▁llegando	-10.3458
07	-10.3466
▁monasterio	-10.3474
▁organizado	-10.348
cial	-10.3485
▁0.8	-10.3495
▁chan	-10.3499
▁tren	-10.3499
gor	-10.3507
▁universitario	-10.3508
marca	-10.351
▁capítulo	-10.351
▁comportamiento	-10.3514
▁piezas	-10.3517
▁recibido	-10.352
cis	-10.3525
sk	-10.3526
▁desarrollar	-10.353
ándolo	-10.3531
▁corriente	-10.3532
▁inicial	-10.3534
▁viento	-10.3536
▁excep	-10.3542
▁tasa	-10.3544
▁otorga	-10.3548
▁ayudar	-10.3548
ky	-10.3551
▁comedia	-10.3558
▁denominada	-10.356
trato	-10.3561
▁espacial	-10.3563
vá	-10.3563
▁black	-10.3563
hor	-10.3564
▁comerciales	-10.3568
side	-10.357
▁diputado	-10.3571
▁fotografía	-10.3579
▁necesaria	-10.3583
▁entrar	-10.3584
06	-10.3585
▁ramón	-10.3587
▁expresión	-10.3592
ington	-10.3597
▁music	-10.36
▁compa	-10.3601
eran	-10.3603
▁bosques	-10.3608
ánico	-10.3612
ade	-10.3613
rla	-10.3617
▁vino	-10.3617
▁utilizan	-10.3621
ub	-10.3622
vision	-10.3629
▁alimenta	-10.3634
▁notable	-10.3635
rela	-10.3637
reg	-10.3642
grafía	-10.3645
▁agrícola	-10.3646
▁lanza	-10.3653
▁potencial	-10.3655
▁enorme	-10.3656
▁públicas	-10.3657
.2	-10.3657
trac	-10.3658
▁necesita	-10.3666
▁inicios	-10.367
vista	-10.3672
gg	-10.3681
uro	-10.3681
cum	-10.3687
▁teniendo	-10.3691
▁organizaciones	-10.3695
▁populares	-10.3696
▁1936	-10.37
▁32	-10.3706
▁acto	-10.3706
▁refleja	-10.3708
▁palma	-10.371
▁poesía	-10.3716
leta	-10.3721
logía	-10.3724
▁pintor	-10.3727
cada	-10.3729
una	-10.373
rup	-10.3736
▁asesinato	-10.3736
long	-10.3739
▁taxonomía	-10.3743
dur	-10.3747
▁sirve	-10.3755
▁iniciativa	-10.3757
rista	-10.3771
▁vasco	-10.3776
▁elemento	-10.3777
itario	-10.3779
▁cercana	-10.3781
▁propios	-10.3786
▁artística	-10.3787
▁figuras	-10.3793
ció	-10.3794
▁neo	-10.3805
▁comienzo	-10.3806
▁clara	-10.3809
▁1.0	-10.3812
▁recibir	-10.3813
▁semi	-10.3815
fil	-10.3816
▁autoridad	-10.3818
▁depende	-10.3822
▁cristo	-10.3824
▁comunes	-10.3824
termin	-10.3826
gente	-10.3829
▁múltiples	-10.3829
mel	-10.3837
cero	-10.3846
▁procesos	-10.3852
▁500	-10.3852
▁indígenas	-10.3854
▁1969	-10.3854
▁cra	-10.3861
▁establecer	-10.3863
ak	-10.3873
▁jardín	-10.3874
▁0,5	-10.3877
ges	-10.3882
rey	-10.3886
▁realizada	-10.3891
▁1971	-10.3901
▁desempeña	-10.3901
ática	-10.3901
▁registro	-10.3902
ting	-10.3911
▁alejandro	-10.3914
.4	-10.3916
▁regresa	-10.3916
▁disputó	-10.3918
▁arco	-10.3923
▁evidencia	-10.3927
▁mucha	-10.3931
▁construyó	-10.3932
▁1945	-10.3935
▁noroeste	-10.3941
▁seguido	-10.3946
cay	-10.3947
▁love	-10.3947
▁1967	-10.3958
▁sacerdote	-10.3958
▁aprovecha	-10.3959
▁editor	-10.3959
03	-10.3966
wan	-10.3967
ung	-10.3968
ili	-10.3969
uk	-10.3969
▁cubierta	-10.3973
▁contexto	-10.3973
▁detrás	-10.3979
▁comprende	-10.3982
▁some	-10.3985
hue	-10.3986
▁cierta	-10.3987
hard	-10.3989
gal	-10.399
▁debajo	-10.3992
▁estadística	-10.3992
▁thomas	-10.3992
▁convertirse	-10.4001
▁culturales	-10.4008
dre	-10.4011
▁órdenes	-10.4011
▁bay	-10.402
▁conciertos	-10.4021
▁eléctrica	-10.4022
xa	-10.4024
mara	-10.4025
dina	-10.4031
▁berlín	-10.4037
-3	-10.4039
güe	-10.4043
▁diputados	-10.4049
▁romana	-10.4053
▁lograr	-10.4055
▁caja	-10.406
▁mecanismo	-10.4062
mil	-10.4067
▁secuencia	-10.4069
jó	-10.4076
▁0.1	-10.4082
000	-10.4083
▁experiment	-10.4083
▁dedicado	-10.4085
▁vali	-10.4086
cina	-10.4087
ná	-10.4089
gle	-10.4092
▁utilizando	-10.4099
▁físico	-10.4101
▁fiestas	-10.4106
ret	-10.4107
presión	-10.4109
▁llevado	-10.4109
▁monumento	-10.4115
▁judicial	-10.4118
▁sonora	-10.4133
ring	-10.4139
nic	-10.4139
gli	-10.414
eño	-10.4142
▁deportes	-10.4143
▁movimientos	-10.4146
▁rol	-10.4153
▁ácido	-10.4164
bli	-10.4167
▁búsqueda	-10.4172
▁anual	-10.4172
▁santos	-10.4173
▁vive	-10.4173
▁competición	-10.4174
▁egipto	-10.4176
ning	-10.4181
▁alma	-10.4188
▁poblaciones	-10.4191
▁borde	-10.4195
▁aspectos	-10.4198
▁básica	-10.42
dul	-10.4203
▁simplemente	-10.4203
▁miss	-10.4206
0,7	-10.4206
out	-10.4207
▁alemanes	-10.4209
pri	-10.4215
riz	-10.4215
▁aves	-10.4217
▁pun	-10.4223
▁ahí	-10.4224
▁suelen	-10.4229
rac	-10.4233
▁cola	-10.4237
uc	-10.4239
▁formada	-10.4239
▁practica	-10.4241
ici	-10.4245
por	-10.4251
▁ciudadanos	-10.4258
cier	-10.4259
▁enviado	-10.4265
▁fija	-10.4265
▁límite	-10.4267
▁franceses	-10.4268
psi	-10.4268
▁men	-10.4269
tores	-10.4275
▁fiscal	-10.4282
▁empa	-10.4287
▁cambiar	-10.4287
▁rico	-10.4293
ifica	-10.4297
cie	-10.4302
▁1920	-10.4302
▁justo	-10.4305
▁encima	-10.4307
▁arriba	-10.4307
gru	-10.431
▁requiere	-10.4311
▁1964	-10.4315
▁mismos	-10.4318
▁torres	-10.432
▁artístico	-10.432
▁convertido	-10.4324
▁armada	-10.4324
▁únicamente	-10.4325
▁prisión	-10.4325
mur	-10.433
▁interpretación	-10.4331
▁clásica	-10.4335
▁décadas	-10.4335
▁my	-10.4337
fen	-10.4342
▁unidas	-10.4346
▁amplio	-10.4346
▁espectáculo	-10.4353
listas	-10.4356
fri	-10.4357
▁monta	-10.436
▁concierto	-10.4361
tua	-10.4367
▁boca	-10.4376
▁aspecto	-10.4381
▁protesta	-10.4382
▁1.1	-10.4389
▁vicente	-10.4392
▁homenaje	-10.4401
▁sil	-10.4403
▁baloncesto	-10.4406
▁concentra	-10.4406
▁establece	-10.4407
▁científico	-10.4413
▁habitual	-10.4426
ight	-10.4429
▁presta	-10.4431
▁celebr	-10.4439
▁league	-10.4439
▁establecido	-10.4452
▁granada	-10.4459
-0	-10.4459
▁totalmente	-10.4461
gie	-10.4464
▁leyenda	-10.4466
▁rap	-10.4466
flex	-10.4466
▁diseñado	-10.4468
▁descubrimiento	-10.4468
▁lee	-10.4472
▁1.2	-10.4473
uela	-10.4484
▁identidad	-10.4488
▁aragón	-10.4492
▁tramo	-10.4493
▁rosario	-10.4496
dica	-10.4496
▁vecinos	-10.4499
▁grabación	-10.4507
▁tendencia	-10.4508
▁remo	-10.4513
▁comienzos	-10.4516
eña	-10.4517
struct	-10.4519
▁infantil	-10.4519
▁xvii	-10.4526
cue	-10.4527
▁números	-10.4531
▁sello	-10.4534
▁art	-10.4534
more	-10.4538
▁océano	-10.4541
▁presión	-10.4548
▁temporal	-10.455
▁estudiar	-10.4552
iste	-10.4553
▁rodea	-10.4554
gna	-10.4564
▁corresponde	-10.4567
▁naval	-10.4577
▁asistencia	-10.4577
▁dedicada	-10.458
▁impacto	-10.4583
▁terminar	-10.4587
▁cd	-10.4589
▁avance	-10.4589
uni	-10.4594
▁maria	-10.4596
ag	-10.4598
▁apoya	-10.4603
▁agencia	-10.461
▁1966	-10.461
▁transforma	-10.4616
▁reales	-10.4629
▁proviene	-10.4629
▁volumen	-10.464
▁inaugur	-10.4641
▁viene	-10.4643
▁nuclear	-10.4643
bé	-10.4652
▁carmen	-10.4652
▁jackson	-10.4654
bis	-10.4657
▁moneda	-10.466
rito	-10.466
ux	-10.4662
▁1948	-10.4681
▁asuntos	-10.4681
fica	-10.4682
▁salió	-10.469
▁afecta	-10.4691
▁especiales	-10.4692
▁usando	-10.4695
agu	-10.4702
▁incluía	-10.4706
cana	-10.4709
tter	-10.4711
▁privado	-10.4711
▁descubierto	-10.472
ere	-10.4725
▁dificultad	-10.4729
▁sexual	-10.4735
▁blue	-10.4736
▁coche	-10.474
▁organiza	-10.4741
▁coro	-10.4742
▁convento	-10.4744
▁localidades	-10.475
▁olímpicos	-10.475
▁bronce	-10.4752
jer	-10.4756
▁sánchez	-10.4756
▁latina	-10.4756
xe	-10.4759
prop	-10.4759
▁primaria	-10.476
▁deporte	-10.4762
▁cama	-10.4763
mán	-10.4777
▁árboles	-10.4777
▁estrecha	-10.4779
king	-10.478
▁licencia	-10.4783
▁administra	-10.4784
▁tradicionales	-10.4787
star	-10.4788
▁fachada	-10.4791
▁bill	-10.4791
▁sustancia	-10.4796
▁alberga	-10.4797
▁ceremonia	-10.4798
iro	-10.4818
▁ingeniería	-10.4818
▁inform	-10.482
dida	-10.4823
▁apenas	-10.4828
▁récord	-10.483
▁spring	-10.483
▁individual	-10.4831
▁destacar	-10.4832
interpretó	-10.4832
thi	-10.4836
▁0.9	-10.4836
▁kan	-10.4838
pino	-10.484
▁determina	-10.4843
▁continente	-10.4851
▁directa	-10.4853
▁teniente	-10.4854
▁1962	-10.4862
fos	-10.4862
bot	-10.4864
▁recién	-10.4865
itas	-10.4868
▁aplicaciones	-10.487
▁abs	-10.4871
▁1965	-10.4874
▁terrestre	-10.4876
irse	-10.4877
▁vivir	-10.488
▁ricardo	-10.4883
▁aun	-10.4885
▁instala	-10.4886
▁femenina	-10.489
▁ópera	-10.489
▁barra	-10.4893
▁extendi	-10.4898
▁louis	-10.4907
hr	-10.4911
▁condición	-10.4917
▁hierro	-10.4918
▁expres	-10.4924
▁avión	-10.493
▁hidro	-10.493
tía	-10.4931
▁series	-10.4931
▁andrés	-10.4932
ding	-10.4933
poli	-10.4936
▁urbana	-10.4937
▁noble	-10.494
pt	-10.4946
dilla	-10.4947
▁penal	-10.4952
▁propósito	-10.4953
▁dinastía	-10.4955
ví	-10.4956
▁salva	-10.4961
món	-10.4964
centr	-10.4968
né	-10.4968
▁concepción	-10.4969
▁permaneció	-10.4971
▁ubicación	-10.4972
rín	-10.4973
▁defini	-10.4977
▁universo	-10.4985
greg	-10.499
cr	-10.4999
wil	-10.4999
▁alternativa	-10.5002
▁cambió	-10.5007
▁duda	-10.5009
▁documental	-10.5011
▁recorrido	-10.5015
celular	-10.5018
▁continental	-10.5019
▁bajos	-10.5022
▁mad	-10.5029
▁mora	-10.5029
lic	-10.5031
▁dejando	-10.5031
▁oportunidad	-10.5032
▁producida	-10.5033
ille	-10.5033
▁rápido	-10.504
ok	-10.5044
▁preocupa	-10.5044
umi	-10.5045
▁abarca	-10.5047
cena	-10.505
▁tv	-10.5052
▁profesionales	-10.5052
▁dispone	-10.5057
▁reunión	-10.5059
▁judíos	-10.5059
▁expansión	-10.5061
▁bor	-10.5062
▁cristiana	-10.5064
▁miles	-10.5068
▁records	-10.5068
▁llamó	-10.5069
▁cifra	-10.5069
▁territorial	-10.507
▁díaz	-10.5078
▁escritura	-10.508
▁conservado	-10.5082
▁hogar	-10.5085
▁1963	-10.5086
▁frecuente	-10.509
▁demasiado	-10.5092
▁rose	-10.5096
pto	-10.5097
wer	-10.5097
nga	-10.5099
▁1958	-10.5101
▁guarda	-10.5104
nk	-10.5107
parecen	-10.5107
▁tienda	-10.5109
▁compr	-10.5119
▁violencia	-10.512
▁italiana	-10.5127
ted	-10.5133
▁europeos	-10.5152
▁invitado	-10.5152
▁cura	-10.5153
etas	-10.5156
lect	-10.5159
▁conservación	-10.516
▁denominación	-10.516
ball	-10.5168
▁circuito	-10.517
low	-10.5171
mera	-10.5173
▁polonia	-10.5175
▁cali	-10.5176
▁redes	-10.5183
▁97	-10.5191
tista	-10.5192
▁letra	-10.5192
▁métodos	-10.5204
▁vivió	-10.5205
0,8	-10.5207
а	-10.5208
▁promoción	-10.5211
chen	-10.5225
ugh	-10.5225
▁montañas	-10.5228
pha	-10.523
▁panamá	-10.5235
▁participantes	-10.5235
idae	-10.5236
▁cortes	-10.5239
▁piso	-10.5246
cán	-10.5254
▁sale	-10.5254
▁firmó	-10.5258
▁profunda	-10.5261
▁fórmula	-10.5268
▁pensamiento	-10.5268
▁acusa	-10.5273
gráfico	-10.5277
▁1939	-10.5283
▁usuarios	-10.5283
anta	-10.5285
▁carreras	-10.5287
lon	-10.5287
▁renuncia	-10.5291
glu	-10.5292
▁divide	-10.5299
▁barrios	-10.5309
tta	-10.531
gy	-10.5313
▁white	-10.5316
0,9	-10.5318
▁merc	-10.532
▁espíritu	-10.5322
stone	-10.5325
▁suiza	-10.5331
▁públicos	-10.5332
▁reinado	-10.5338
▁invasión	-10.5339
▁renov	-10.5339
▁ave	-10.534
▁rural	-10.5345
▁juicio	-10.5351
▁griega	-10.5353
▁constitucional	-10.5357
▁relato	-10.5357
▁definición	-10.5361
▁quiere	-10.5362
▁pregunta	-10.5365
▁allá	-10.5371
▁representantes	-10.5371
▁referencias	-10.5375
emo	-10.5376
ambi	-10.5382
▁game	-10.5383
ame	-10.5385
▁colonial	-10.5385
tier	-10.5387
▁honduras	-10.5387
▁nace	-10.5388
▁esté	-10.5389
▁representante	-10.5392
ables	-10.5395
colo	-10.5406
▁altas	-10.5413
▁ingresos	-10.5416
▁invita	-10.5416
▁mandato	-10.5421
ológica	-10.5426
terio	-10.5426
▁existía	-10.5429
ificado	-10.5436
▁gómez	-10.5439
bie	-10.544
▁atlético	-10.5443
▁estaciones	-10.5446
stru	-10.5456
▁incluida	-10.5458
▁constituye	-10.5465
▁característica	-10.5467
1,5	-10.5468
▁mole	-10.5473
▁ocupó	-10.5473
▁gabriel	-10.5473
▁bandas	-10.5476
▁intención	-10.5478
▁1961	-10.5479
▁culto	-10.5494
ell	-10.5502
▁98	-10.5503
▁hacienda	-10.5505
▁fama	-10.5505
▁poderes	-10.5506
▁conforma	-10.5507
▁límites	-10.5508
▁asesinado	-10.5511
▁cita	-10.5517
▁paisaje	-10.5517
▁cáncer	-10.5517
ota	-10.5519
bet	-10.5521
▁pantalla	-10.5522
▁cómic	-10.5527
visión	-10.553
fall	-10.5534
▁árbol	-10.5535
ector	-10.5536
▁triunfo	-10.5539
▁vocal	-10.554
▁agrega	-10.5552
▁ingresa	-10.5552
▁vega	-10.5559
▁rival	-10.556
▁discurso	-10.5567
▁fri	-10.5567
▁ocurre	-10.5569
▁altos	-10.5574
▁consumo	-10.5579
▁implementa	-10.5582
▁posiciones	-10.5584
arra	-10.5586
▁abandonar	-10.5588
▁raíz	-10.5589
▁castellano	-10.5589
▁danza	-10.559
ní	-10.5597
▁mostrar	-10.5604
▁civiles	-10.5608
▁reacción	-10.5609
ego	-10.561
▁ataques	-10.5611
▁ocasión	-10.5617
▁frank	-10.5617
▁agrupa	-10.5617
▁inmediatamente	-10.562
▁exporta	-10.5623
mero	-10.5628
bes	-10.5629
▁moderno	-10.5632
▁peña	-10.5634
▁familiar	-10.5635
pia	-10.5643
▁asesor	-10.5643
ango	-10.5646
lli	-10.5657
▁presentación	-10.5657
fí	-10.5661
pes	-10.5666
▁1956	-10.5673
1,2	-10.5676
mm	-10.5677
▁grecia	-10.5683
▁descrito	-10.5687
sie	-10.5695
▁modific	-10.5696
ear	-10.5699
fl	-10.57
▁poblado	-10.5702
▁diferencias	-10.5708
▁símbolo	-10.5711
▁chileno	-10.5711
▁ediciones	-10.5713
sol	-10.5713
▁encargado	-10.5714
▁literaria	-10.5714
▁adopta	-10.5719
▁poner	-10.5722
▁últimas	-10.5734
▁secreto	-10.5736
nés	-10.5742
ore	-10.5743
▁guerrero	-10.5747
▁cristal	-10.5754
▁emigr	-10.5761
▁factor	-10.5761
▁actores	-10.5762
▁dictadura	-10.5763
▁laguna	-10.577
fund	-10.5776
▁religiosa	-10.5778
bl	-10.578
▁aporta	-10.5785
▁resultó	-10.5785
nato	-10.579
▁aproxima	-10.5793
mond	-10.5798
aceae	-10.5799
▁próximo	-10.58
▁anillo	-10.5801
▁bienes	-10.581
▁gris	-10.5811
▁sport	-10.5812
▁procedente	-10.5814
reo	-10.5815
▁conoció	-10.5818
▁pasajeros	-10.5819
▁quinto	-10.5819
bir	-10.582
▁científicos	-10.5822
tima	-10.5826
mid	-10.583
▁castro	-10.5833
bier	-10.5834
▁aldea	-10.5835
burgo	-10.5835
▁batería	-10.5835
▁regionales	-10.5838
▁textos	-10.584
▁recientemente	-10.5842
▁anuncia	-10.5842
▁fabrica	-10.5842
▁muro	-10.5844
▁bomba	-10.585
▁neuro	-10.5856
ong	-10.5858
▁carl	-10.5859
▁continúa	-10.5861
▁placa	-10.5862
▁eleva	-10.5862
med	-10.5863
here	-10.5868
har	-10.5874
▁empieza	-10.5877
▁am	-10.5879
▁académico	-10.5887
▁opinión	-10.5887
▁objetivos	-10.589
▁muerto	-10.5893
rado	-10.5894
▁ficha	-10.5894
▁sectores	-10.5895
▁fundamental	-10.5906
▁menciona	-10.5909
unda	-10.5918
▁trono	-10.5922
α	-10.5928
cente	-10.5931
▁visual	-10.5937
▁teatral	-10.5939
▁administrativa	-10.5939
sson	-10.594
▁quién	-10.594
▁factores	-10.5943
▁300	-10.5944
▁importa	-10.5945
▁fort	-10.5945
ial	-10.5946
▁esperanza	-10.5949
▁1941	-10.5961
aca	-10.597
▁salir	-10.5971
▁brown	-10.5977
▁carne	-10.5978
ares	-10.598
▁asigna	-10.5982
▁piel	-10.5983
▁1.5	-10.5984
▁lluvia	-10.5985
itz	-10.5986
uch	-10.5987
▁abandona	-10.5987
▁avanza	-10.5987
▁actuales	-10.5988
▁brazo	-10.599
▁estrategia	-10.5993
▁regresar	-10.5993
▁flora	-10.5997
bran	-10.5998
▁milita	-10.6002
▁geográfica	-10.6006
▁finaliza	-10.6007
muestran	-10.6008
▁prácticamente	-10.6015
▁laboratorio	-10.6019
▁ilustra	-10.6021
dd	-10.6023
revolucionario	-10.6027
▁bretaña	-10.6039
pho	-10.604
▁0,6	-10.6041
▁círculo	-10.6042
▁single	-10.6044
▁virginia	-10.6045
cord	-10.6046
row	-10.6051
inas	-10.6052
aga	-10.6053
▁humanidad	-10.6054
▁ventaja	-10.6054
tol	-10.6057
▁aprecia	-10.6058
ótica	-10.606
▁smith	-10.6066
▁desea	-10.6072
▁podemos	-10.6079
dón	-10.6083
▁publicaciones	-10.6084
▁roberto	-10.6087
▁contar	-10.6092
▁1959	-10.6094
▁asentamiento	-10.6094
▁alimentos	-10.6096
▁1944	-10.6097
▁henry	-10.6098
▁fuertes	-10.6102
▁sho	-10.6108
▁episodios	-10.611
▁puertas	-10.6112
▁estable	-10.6114
▁grave	-10.6114
▁electro	-10.6114
▁significado	-10.6114
phi	-10.6115
box	-10.6116
▁crece	-10.6116
▁famosa	-10.6118
▁varia	-10.6118
▁recepción	-10.612
kra	-10.6128
▁will	-10.613
▁propias	-10.6133
▁vivi	-10.6139
▁cultiva	-10.6142
▁ejemplos	-10.6144
específico	-10.6144
cala	-10.6145
kh	-10.6147
tho	-10.615
ticos	-10.6151
▁obtiene	-10.6157
▁intent	-10.6159
▁1.3	-10.6164
kov	-10.6167
▁45	-10.617
▁vías	-10.6171
▁king	-10.6175
▁británicos	-10.6176
▁trabajando	-10.6178
▁caribe	-10.6179
▁big	-10.6179
adi	-10.6183
▁1957	-10.6185
▁vehículos	-10.6187
taba	-10.6187
▁pudiera	-10.6192
▁inspir	-10.6192
▁mejorar	-10.6194
siguieron	-10.6199
▁anota	-10.6207
ubi	-10.6207
▁veinte	-10.621
▁duración	-10.6214
num	-10.6219
▁bases	-10.6221
▁historiador	-10.6226
nea	-10.6228
▁funcionamiento	-10.6231
▁cristianos	-10.6233
▁disponible	-10.6234
▁nombró	-10.6237
▁razones	-10.6237
▁página	-10.6239
▁categorías	-10.6239
▁mai	-10.624
dale	-10.6242
▁tira	-10.6244
formando	-10.6246
house	-10.6248
▁electo	-10.6249
▁ventas	-10.625
▁1949	-10.6252
químico	-10.6256
kur	-10.6257
hin	-10.6258
▁utiliz	-10.626
▁1955	-10.6266
▁relativamente	-10.6267
pot	-10.627
▁documentos	-10.6274
▁relacionados	-10.6275
▁entidad	-10.6275
▁ingresó	-10.6276
▁migra	-10.6278
▁sant	-10.6286
▁sitúa	-10.629
▁air	-10.6291
▁variable	-10.6293
mada	-10.6295
▁bajas	-10.6296
▁comuni	-10.6296
▁misiones	-10.6296
▁republicano	-10.6299
tag	-10.63
mic	-10.6301
▁tiro	-10.6305
▁iglesias	-10.6311
▁zaragoza	-10.6311
▁inca	-10.6312
▁enfermedades	-10.6314
▁seguro	-10.6341
tido	-10.6341
mental	-10.6341
▁cargos	-10.6345
▁cuadra	-10.6346
vul	-10.6346
▁federico	-10.6349
▁max	-10.635
▁instrumentos	-10.6351
leg	-10.6355
▁actos	-10.6357
▁scott	-10.636
uf	-10.6361
tte	-10.6365
uelo	-10.6366
1,1	-10.6372
▁barco	-10.6374
eléctrico	-10.6376
▁discos	-10.6376
▁esencial	-10.6377
▁rendimiento	-10.6381
lum	-10.6384
▁perdido	-10.6391
cker	-10.6394
▁contó	-10.6396
tum	-10.6401
▁salón	-10.6403
▁nota	-10.6403
▁char	-10.6404
▁siguiendo	-10.6405
lejos	-10.6408
▁viola	-10.6408
mino	-10.6411
▁mancha	-10.6414
▁pocas	-10.6414
▁abajo	-10.6414
▁igualmente	-10.6415
▁define	-10.6415
▁experimenta	-10.6416
▁onda	-10.6417
▁negocios	-10.6419
▁oscuro	-10.6421
▁norma	-10.6421
ques	-10.6426
▁chicago	-10.6426
ett	-10.6428
gü	-10.6429
nera	-10.643
▁nicolás	-10.6432
▁noticias	-10.6434
▁absoluta	-10.6435
fren	-10.6438
fran	-10.6439
▁provoc	-10.6444
tea	-10.6448
rita	-10.6449
▁traslada	-10.6451
ef	-10.6454
▁sara	-10.646
▁mural	-10.6461
▁feria	-10.6462
▁exhibi	-10.6462
▁debate	-10.6463
▁sucesor	-10.6467
▁tejido	-10.6473
mita	-10.6474
▁restaur	-10.6475
▁llegado	-10.6478
icas	-10.6479
cedió	-10.648
▁viaja	-10.648
▁eco	-10.6481
▁visión	-10.6482
▁guion	-10.6482
▁sueño	-10.6484
▁variante	-10.6485
oides	-10.6489
▁jornada	-10.6489
▁pesca	-10.6491
▁min	-10.6496
▁pelea	-10.6497
iri	-10.6498
▁treinta	-10.6503
▁ordenó	-10.651
▁terminal	-10.651
tiza	-10.6511
▁espacios	-10.6513
▁estructuras	-10.6513
bb	-10.6516
core	-10.6517
▁american	-10.6518
▁propietario	-10.6519
▁paga	-10.6521
▁órbita	-10.6525
▁tripula	-10.6525
tales	-10.6526
▁superiores	-10.6526
▁gil	-10.6534
▁planea	-10.6534
lly	-10.6538
▁orígenes	-10.6538
má	-10.654
▁amar	-10.6541
▁obligado	-10.6544
▁cueva	-10.6545
▁consideran	-10.6548
▁critica	-10.6553
▁copias	-10.6554
▁galería	-10.6556
▁buscar	-10.6556
cientos	-10.6557
▁levanta	-10.656
firmó	-10.656
▁1946	-10.656
wen	-10.6572
dico	-10.6573
▁empeza	-10.6574
▁primavera	-10.6574
▁separado	-10.6579
teros	-10.6582
▁llamados	-10.6582
▁center	-10.6582
▁rugby	-10.6585
▁trai	-10.659
fina	-10.6592
ñas	-10.6593
▁medieval	-10.6593
▁estadounidenses	-10.66
cat	-10.6601
▁desempeñó	-10.6604
▁solución	-10.6604
▁infancia	-10.6605
▁presentar	-10.6608
▁manda	-10.6609
▁obtenido	-10.661
▁marino	-10.6612
▁georgia	-10.6614
▁deseo	-10.6615
▁indu	-10.6619
eza	-10.6621
▁ficción	-10.6624
▁east	-10.6627
▁inglesa	-10.6629
▁cinta	-10.6633
▁puso	-10.6636
▁músico	-10.6648
▁líderes	-10.6649
▁rusa	-10.6649
ture	-10.6653
▁convirtiéndose	-10.6654
▁responsabilidad	-10.6654
▁componentes	-10.6654
▁verdadero	-10.6654
tom	-10.6658
ejo	-10.6661
tti	-10.6664
phy	-10.6664
▁1954	-10.6673
▁drama	-10.6673
ity	-10.6675
▁identifica	-10.668
▁cruza	-10.6681
▁muertos	-10.6681
pier	-10.6684
▁hielo	-10.6698
uti	-10.67
tano	-10.6706
▁sean	-10.6709
▁significativa	-10.671
cilia	-10.6713
timo	-10.6715
▁libra	-10.6716
▁pastor	-10.6717
▁atlántico	-10.6718
▁extiende	-10.6721
▁ritmo	-10.6721
▁perder	-10.6721
▁hong	-10.6723
▁obs	-10.6724
-17	-10.6725
bach	-10.6729
▁coste	-10.6729
▁representan	-10.6744
▁1931	-10.6745
py	-10.6746
guard	-10.675
▁debería	-10.675
▁mesa	-10.6751
▁estreno	-10.6752
culo	-10.6756
▁intervención	-10.6757
abrió	-10.6759
▁dulce	-10.6763
▁nazi	-10.6764
▁1943	-10.6765
▁empleo	-10.6765
▁esas	-10.677
▁mañana	-10.6771
▁protagonizada	-10.6772
▁recuperar	-10.6782
▁bob	-10.6785
▁crítico	-10.6785
cado	-10.6785
zas	-10.6786
▁joseph	-10.6788
▁planes	-10.6788
asi	-10.6789
clav	-10.6791
time	-10.6791
rod	-10.6793
inde	-10.6798
▁school	-10.6799
▁1947	-10.6807
▁liberación	-10.6807
▁adaptación	-10.681
nik	-10.681
▁inferiores	-10.6811
▁comenta	-10.6811
▁supone	-10.6812
▁adn	-10.6818
quito	-10.6819
▁programación	-10.682
▁libera	-10.6821
ise	-10.6822
▁históricos	-10.6827
tismo	-10.6827
▁transporta	-10.683
notó	-10.6835
▁cumplir	-10.6835
▁1952	-10.6838
▁matar	-10.6838
▁envió	-10.6841
▁prote	-10.6842
▁ventana	-10.6842
lyn	-10.6845
▁roca	-10.6849
▁toledo	-10.685
▁alfa	-10.6852
tín	-10.6852
▁gigante	-10.6855
▁all	-10.6858
ila	-10.6861
▁javier	-10.6864
▁interno	-10.6865
▁sitios	-10.6866
▁abre	-10.687
1,3	-10.6872
▁particularmente	-10.6874
▁ideal	-10.6874
▁asturias	-10.6875
▁cuidado	-10.6882
chel	-10.6885
▁democracia	-10.6889
▁goberna	-10.6891
▁determinado	-10.6894
ach	-10.6895
▁grab	-10.6896
▁cosa	-10.6896
▁compañeros	-10.6897
lip	-10.6899
▁universidades	-10.6899
▁high	-10.6903
▁cabecera	-10.6904
▁1.4	-10.6906
▁escritos	-10.6907
▁tratar	-10.6908
▁organismos	-10.6911
▁mario	-10.6915
eb	-10.692
▁saga	-10.6921
▁dada	-10.6925
▁campeones	-10.6926
▁coalición	-10.6932
versión	-10.6934
▁pies	-10.6937
▁resolución	-10.6937
▁oferta	-10.6941
ello	-10.6944
▁fortaleza	-10.6949
▁1953	-10.6951
ej	-10.6953
▁ojos	-10.6962
▁primo	-10.6966
▁críticos	-10.6966
fur	-10.6968
bara	-10.6969
▁profundidad	-10.6972
rru	-10.6972
mmer	-10.6973
▁dedicó	-10.6975
gun	-10.6975
▁héroe	-10.6977
lim	-10.6978
▁senador	-10.6979
▁dicta	-10.698
tex	-10.6983
▁union	-10.6983
iales	-10.6983
ual	-10.6986
▁herido	-10.6991
tividad	-10.6998
▁masculino	-10.7
stri	-10.7
▁niña	-10.7001
▁1937	-10.7009
▁1938	-10.7012
▁sugiere	-10.7018
▁temp	-10.7019
▁proveniente	-10.702
▁supera	-10.702
▁integrado	-10.7023
▁consideraba	-10.7024
▁chica	-10.7029
▁ocupación	-10.703
▁xiii	-10.703
▁empresario	-10.7031
nov	-10.7035
mill	-10.7035
vieron	-10.7039
muni	-10.704
ast	-10.704
▁canales	-10.7042
▁básico	-10.7047
▁artificial	-10.7052
▁democrática	-10.7052
▁seleccionado	-10.7054
▁tercero	-10.7056
▁liber	-10.706
olo	-10.706
trajo	-10.7064
pí	-10.7075
▁exteriores	-10.7081
pit	-10.7085
▁típica	-10.7087
▁precio	-10.7088
ska	-10.7091
▁mapa	-10.7098
▁coll	-10.71
▁mega	-10.71
cari	-10.7106
rillo	-10.7106
▁fondos	-10.7107
▁comunica	-10.7111
▁municipales	-10.7115
lit	-10.7116
▁sali	-10.7117
▁psico	-10.7119
▁corri	-10.7124
▁esp	-10.7125
▁saber	-10.7125
2,5	-10.7128
▁1942	-10.7133
▁acumula	-10.7133
scribió	-10.7133
▁promovi	-10.7133
▁gor	-10.7134
▁retrato	-10.7137
▁animal	-10.7138
▁comi	-10.7141
▁roja	-10.7143
▁marcos	-10.7147
▁continuar	-10.7149
cti	-10.7152
▁rueda	-10.7152
▁japonés	-10.7153
cultura	-10.7155
olu	-10.7156
▁antiguas	-10.7157
izo	-10.7168
jen	-10.7168
▁baila	-10.7177
▁procedimiento	-10.7183
▁escritores	-10.7183
▁150	-10.7184
▁prima	-10.7186
▁ampliamente	-10.7188
dig	-10.7201
ciertos	-10.7205
▁ucrania	-10.7215
▁retiró	-10.7215
▁ermita	-10.7215
▁piano	-10.7216
▁arroyo	-10.7223
▁cielo	-10.7225
zer	-10.7229
▁manifest	-10.723
vale	-10.7236
▁transmisión	-10.7236
key	-10.724
▁destinado	-10.7244
▁baile	-10.7247
mana	-10.7248
aj	-10.7252
▁http	-10.7256
▁comenzar	-10.7262
▁mediterráneo	-10.7264
▁incluyó	-10.7265
bá	-10.7266
▁pueda	-10.7267
▁tráfico	-10.7273
▁home	-10.7274
barro	-10.7276
▁enlaces	-10.7277
▁presentes	-10.728
dista	-10.7281
▁cuerpos	-10.7291
▁royal	-10.7292
ius	-10.7294
▁japonesa	-10.7297
▁jack	-10.7299
▁atrás	-10.73
legi	-10.73
▁sexo	-10.732
▁ciertas	-10.7323
▁intereses	-10.7324
▁actua	-10.7325
▁café	-10.7327
▁correspondiente	-10.7328
ensis	-10.7329
heim	-10.7336
▁cooper	-10.7339
▁confirma	-10.734
▁fácil	-10.7345
▁contemporáneo	-10.7347
▁manga	-10.7348
▁declaración	-10.7349
▁determinar	-10.7355
▁ordena	-10.7355
▁trabajado	-10.7361
▁grand	-10.7362
▁comida	-10.7362
▁hip	-10.7367
▁difusión	-10.7368
▁archivo	-10.7369
activ	-10.7374
uz	-10.7374
1,4	-10.7376
▁temprana	-10.7383
▁amarillo	-10.7387
diver	-10.7388
dán	-10.7388
▁suecia	-10.7392
▁renta	-10.7394
▁national	-10.7395
▁reducir	-10.7401
▁popularidad	-10.7406
vé	-10.7409
rat	-10.7418
tería	-10.7419
▁plazo	-10.7422
▁enfrentamiento	-10.7425
▁máquina	-10.7426
▁géneros	-10.744
▁cristian	-10.744
arri	-10.744
▁cordillera	-10.7442
cú	-10.7443
▁macho	-10.7446
▁obrero	-10.7446
▁joaquín	-10.7448
-4	-10.745
▁bala	-10.7454
▁msnm	-10.7454
▁cementerio	-10.7454
▁juvenil	-10.7458
ath	-10.7468
▁usuario	-10.7469
▁1933	-10.7473
▁establecimiento	-10.7476
▁motivos	-10.7481
anto	-10.7482
▁sau	-10.7486
▁plantea	-10.7491
▁álbumes	-10.7492
▁músicos	-10.7502
rú	-10.7502
▁equivalente	-10.7504
▁consigue	-10.7512
anza	-10.7517
ines	-10.7517
seguida	-10.7521
agua	-10.7521
tipo	-10.7522
ich	-10.7526
▁botánico	-10.7527
▁international	-10.753
posición	-10.7531
uer	-10.7532
▁césar	-10.7533
▁organismo	-10.754
▁reclama	-10.7546
▁escolar	-10.7549
oz	-10.755
▁nega	-10.755
▁sebastián	-10.7551
lig	-10.756
▁escenas	-10.7561
▁chu	-10.7563
▁hubiera	-10.7563
▁proclama	-10.7564
▁pieza	-10.7566
▁1934	-10.7572
▁verdad	-10.7572
bit	-10.7573
fle	-10.7573
▁reconocida	-10.7584
▁caracas	-10.7586
▁diámetro	-10.7596
▁traducción	-10.7602
▁fun	-10.7606
chas	-10.7607
▁petróleo	-10.7612
▁agente	-10.7616
abo	-10.762
▁college	-10.7621
▁vii	-10.7627
▁localiza	-10.7629
▁presidi	-10.7631
▁regula	-10.7644
▁consumi	-10.7644
graf	-10.7647
ngu	-10.7648
▁dirigente	-10.7656
▁maya	-10.7656
ence	-10.7664
▁1951	-10.7669
▁pago	-10.767
▁elabora	-10.7673
▁arca	-10.7678
grama	-10.7681
1,6	-10.7683
▁religioso	-10.7686
mpi	-10.7687
▁tocar	-10.7699
▁religiosas	-10.77
elli	-10.7706
▁creencia	-10.7706
just	-10.7715
▁bellas	-10.7718
▁ejecución	-10.7722
▁permitir	-10.7723
▁crónica	-10.7728
▁navarra	-10.7728
▁reconoci	-10.773
sso	-10.7737
▁realmente	-10.7737
▁leon	-10.774
▁literario	-10.774
▁convoc	-10.7742
▁bou	-10.7744
▁abandonó	-10.7746
ándole	-10.7751
▁hembra	-10.7753
mie	-10.7753
tracción	-10.7755
ech	-10.7757
▁soporte	-10.7759
▁aumentar	-10.7761
▁clasificado	-10.7763
▁documento	-10.7765
▁denuncia	-10.7766
adora	-10.7767
▁embajador	-10.7768
▁molécula	-10.7768
▁aliados	-10.777
▁dirige	-10.777
▁considerable	-10.7771
▁marido	-10.7771
▁noreste	-10.7771
▁moral	-10.7774
▁ingreso	-10.7774
hei	-10.7778
▁viven	-10.7787
▁derrotado	-10.779
▁declarado	-10.7793
▁concentración	-10.7798
▁celebración	-10.7799
▁corrientes	-10.7801
▁compañero	-10.7803
▁plena	-10.7805
▁finalizar	-10.7808
▁ordenado	-10.7808
iente	-10.781
luc	-10.7813
▁pidió	-10.7821
water	-10.7825
▁posibles	-10.7831
▁usada	-10.7832
▁ala	-10.7833
▁conmemora	-10.7833
▁orienta	-10.7834
cimiento	-10.7836
▁económicas	-10.7848
▁1929	-10.7848
▁may	-10.7856
▁originales	-10.7859
▁acompañado	-10.786
▁hipótesis	-10.7861
▁jugando	-10.7861
zón	-10.7863
▁excepto	-10.7869
▁once	-10.787
▁agustín	-10.7871
liga	-10.7871
▁concreta	-10.7875
milla	-10.7875
awa	-10.7876
▁brillante	-10.788
▁mismas	-10.7882
▁pronuncia	-10.7882
bú	-10.7885
uma	-10.7889
▁antecedentes	-10.7891
▁proteger	-10.7895
▁signo	-10.7895
▁considerar	-10.7901
▁1932	-10.7901
▁sureste	-10.7903
liz	-10.7903
▁exacta	-10.7915
▁xv	-10.7916
▁puestos	-10.7916
▁creciente	-10.7924
lero	-10.7926
▁calcula	-10.7928
▁pelo	-10.7929
š	-10.793
▁tumba	-10.793
▁romanos	-10.7932
▁grabar	-10.7934
▁transición	-10.7937
▁carro	-10.7938
▁destacado	-10.7945
eira	-10.7945
▁trama	-10.7946
▁presidencial	-10.7947
▁totalidad	-10.7949
▁fis	-10.7949
tilla	-10.7955
▁regla	-10.7956
▁suroeste	-10.7959
▁180	-10.7959
▁combustible	-10.7963
▁asegura	-10.7965
▁extranjero	-10.7966
▁permiten	-10.7967
о	-10.7968
▁inteligencia	-10.7968
▁mencionado	-10.7974
▁frase	-10.7974
▁precios	-10.7976
misión	-10.7977
ctuó	-10.7978
ordina	-10.7982
▁cocina	-10.7985
▁minas	-10.7985
front	-10.7988
▁murcia	-10.7988
hur	-10.7998
▁vicepresidente	-10.8
▁regi	-10.8002
▁1935	-10.8002
▁asteroide	-10.8003
chos	-10.8013
▁individuos	-10.8019
▁rein	-10.8021
▁quizá	-10.8022
▁windows	-10.8025
▁dividido	-10.8031
▁restauración	-10.8034
▁cuestión	-10.8035
▁curva	-10.8035
▁hablar	-10.8035
azo	-10.8038
fort	-10.8042
▁banca	-10.8046
anti	-10.8053
▁fol	-10.8058
▁afirmó	-10.8059
▁ambiental	-10.8062
▁pena	-10.8062
back	-10.8063
bios	-10.8065
▁senado	-10.8069
▁albert	-10.8069
▁2.0	-10.807
teca	-10.8071
▁bélgica	-10.8089
▁tendría	-10.8089
qué	-10.809
▁day	-10.809
▁espectadores	-10.8091
▁kar	-10.8091
▁chris	-10.8098
▁entera	-10.8101
hl	-10.8102
▁incluir	-10.8105
▁estancia	-10.8105
rei	-10.8111
tron	-10.8112
lib	-10.8117
reco	-10.8119
pti	-10.812
▁toro	-10.8122
▁detenido	-10.8123
idez	-10.8123
ish	-10.8124
thor	-10.8129
▁beat	-10.8131
tillo	-10.8135
▁finalizó	-10.8139
ude	-10.8142
▁negativa	-10.8145
▁realizan	-10.8145
▁titulada	-10.8146
▁conocidas	-10.8147
▁comparación	-10.8148
▁tono	-10.815
▁cop	-10.815
pil	-10.8152
tones	-10.8155
▁humor	-10.8158
600	-10.8159
▁ausencia	-10.816
▁lectura	-10.8163
▁participaron	-10.8163
▁casado	-10.8164
▁antigüedad	-10.8166
▁computadora	-10.8166
lev	-10.8172
rino	-10.8172
▁extranjeros	-10.8178
▁dirigir	-10.8179
▁casco	-10.8179
▁satélite	-10.8182
▁amistad	-10.8182
▁electrónico	-10.8182
▁enfrentar	-10.8185
▁soviético	-10.8188
▁portada	-10.8191
▁1.6	-10.8193
pusieron	-10.8193
▁califica	-10.8193
▁solicita	-10.8196
yl	-10.8196
tara	-10.8197
▁lorenzo	-10.8198
▁presupuesto	-10.8207
▁financiero	-10.8208
▁introduj	-10.8214
,	-10.8219
▁occidente	-10.8224
▁doctrina	-10.8227
▁quedando	-10.8228
▁diciendo	-10.8231
▁pacientes	-10.8232
▁chilena	-10.8239
erson	-10.8246
▁colombiano	-10.8246
▁etapas	-10.8247
▁vice	-10.8247
▁defendi	-10.8249
▁acabó	-10.8253
lice	-10.8257
hop	-10.8263
▁fusil	-10.8264
▁presa	-10.8264
▁compromiso	-10.8266
trató	-10.8267
real	-10.8276
▁infantería	-10.8278
ming	-10.8278
▁ejercicio	-10.8279
izados	-10.828
▁previamente	-10.8281
▁verdadera	-10.8281
▁procede	-10.8285
realizaron	-10.8285
▁tomás	-10.8286
▁asumió	-10.8289
gau	-10.8292
▁minuto	-10.8294
▁índice	-10.8295
▁giro	-10.8296
▁vendido	-10.8296
▁canaria	-10.8296
▁cartas	-10.8297
▁estatua	-10.8297
llano	-10.8299
▁homo	-10.8299
▁encarga	-10.8299
▁frecuentemente	-10.83
pata	-10.8302
▁explotación	-10.8306
▁ejemplares	-10.831
▁irlanda	-10.8315
mbe	-10.8315
▁comunicaciones	-10.8322
▁1910	-10.8325
▁perro	-10.8328
▁motores	-10.8329
▁actuaciones	-10.8341
icidad	-10.8344
▁jacob	-10.8346
▁indios	-10.8347
▁actuar	-10.8351
cionista	-10.8359
▁separación	-10.8359
▁ignacio	-10.8361
▁debió	-10.8362
▁jun	-10.8362
▁entrenamiento	-10.8364
▁abundante	-10.8367
▁princesa	-10.8371
▁belleza	-10.8374
tv	-10.8376
▁reemplaz	-10.8377
▁esfuerzos	-10.8382
▁noruega	-10.8394
▁representar	-10.8407
fé	-10.8407
▁2019	-10.8408
▁hugo	-10.8408
▁copia	-10.8415
-15	-10.842
▁víctimas	-10.8421
guera	-10.8423
▁calor	-10.8424
▁estrecho	-10.843
moto	-10.8433
▁incrementa	-10.844
plo	-10.8441
tana	-10.8443
▁mary	-10.8445
▁encontraban	-10.8445
kar	-10.8447
▁mostró	-10.846
▁logro	-10.846
▁enseña	-10.8465
ique	-10.8467
▁revistas	-10.8469
▁prof	-10.8473
▁investigadores	-10.8475
▁temperaturas	-10.8478
far	-10.848
▁llamar	-10.8482
▁descenso	-10.8483
▁llevaba	-10.8486
▁tenga	-10.849
▁económicos	-10.8492
▁novelas	-10.8495
▁reglas	-10.8496
▁efectu	-10.8496
▁columna	-10.8505
▁cou	-10.8505
ā	-10.851
▁retira	-10.851
▁disputar	-10.851
и	-10.8513
▁dolor	-10.8513
▁autonomía	-10.8516
▁deuda	-10.8517
▁enfoque	-10.852
uto	-10.852
▁operativo	-10.8524
fel	-10.8526
▁vieja	-10.8531
▁introducción	-10.8534
▁castel	-10.8537
▁tesis	-10.8545
▁próxima	-10.8556
ógrafo	-10.8562
mut	-10.8564
▁elenco	-10.8564
uda	-10.8565
ui	-10.8566
▁dimensiones	-10.8566
▁defender	-10.8567
▁barcos	-10.8567
duci	-10.857
▁petro	-10.8572
métrica	-10.8573
▁misterio	-10.8573
dá	-10.8574
▁externos	-10.8576
▁empleados	-10.8576
▁videojuego	-10.8577
tric	-10.8581
ún	-10.8589
nero	-10.8592
▁turco	-10.8595
▁útil	-10.8595
▁perspectiva	-10.8597
▁roda	-10.8597
▁peri	-10.8606
▁asistente	-10.8613
▁island	-10.8614
kha	-10.8616
gráficos	-10.8617
▁descubrió	-10.862
▁enemigo	-10.8622
▁1917	-10.8629
▁salto	-10.863
pus	-10.863
▁formal	-10.8631
▁pinturas	-10.8639
hm	-10.8656
▁combinación	-10.8658
▁negocio	-10.867
doras	-10.8673
▁rápida	-10.8674
▁candidatura	-10.8674
▁familiares	-10.8675
▁remonta	-10.8677
▁incidente	-10.8678
▁recupera	-10.868
char	-10.8681
▁fox	-10.8681
▁company	-10.8682
▁fabricación	-10.8684
uco	-10.8684
▁mide	-10.8685
lú	-10.8692
▁aéreo	-10.8701
viv	-10.8703
▁michel	-10.8703
▁enviar	-10.8708
▁utilizados	-10.8708
▁consolida	-10.871
úl	-10.8711
▁mau	-10.8712
▁tampoco	-10.8715
▁reconoce	-10.8716
▁mecánica	-10.8718
▁comúnmente	-10.872
1,9	-10.872
▁genérico	-10.8722
▁llevan	-10.8728
▁juez	-10.8728
▁venecia	-10.8729
comp	-10.8731
▁nacida	-10.8733
▁escapar	-10.8733
ust	-10.8738
▁dama	-10.8741
▁euro	-10.8744
▁1919	-10.8745
tio	-10.8762
▁poca	-10.8763
▁consulta	-10.8763
vita	-10.8765
▁edward	-10.877
▁rara	-10.8776
eau	-10.8778
▁permanece	-10.8785
▁vincula	-10.8789
▁empate	-10.879
▁guitarrista	-10.879
▁religiosos	-10.8792
▁destrucción	-10.8793
▁recoge	-10.8794
say	-10.8799
▁moscú	-10.8801
▁moda	-10.8802
elec	-10.8804
ceno	-10.8806
▁flujo	-10.8806
▁completar	-10.8809
▁controversia	-10.8814
▁papeles	-10.8815
▁puesta	-10.8819
▁movi	-10.8823
▁cruce	-10.8824
▁restaurante	-10.8827
ari	-10.8828
1,7	-10.8838
▁talla	-10.8841
▁jurado	-10.8844
▁viajó	-10.8845
▁criterio	-10.8845
▁cuerda	-10.8846
uca	-10.8849
▁médica	-10.8855
▁alumnos	-10.8859
▁caña	-10.886
▁dispara	-10.8865
▁elevado	-10.8867
rc	-10.8868
master	-10.8868
▁hipo	-10.8873
1,8	-10.8873
▁talento	-10.8874
▁conexión	-10.8879
▁publicar	-10.8882
▁archi	-10.8886
▁desplaza	-10.8888
roy	-10.8889
▁quería	-10.8889
▁ciento	-10.889
▁dependiendo	-10.889
ette	-10.8893
▁orbital	-10.8902
ward	-10.8907
▁mendoza	-10.8907
rial	-10.8907
▁producen	-10.8909
▁coral	-10.891
▁externa	-10.8911
▁caballo	-10.8911
▁experto	-10.8914
▁voto	-10.8916
▁espada	-10.8919
▁fruto	-10.8919
gón	-10.8922
▁cable	-10.8924
▁aprendi	-10.8935
▁brasileño	-10.8936
▁recinto	-10.8938
zz	-10.8939
▁incorpor	-10.8947
▁fauna	-10.8948
▁registra	-10.8949
▁secretaría	-10.8955
▁turístico	-10.8957
pú	-10.8963
▁margen	-10.8968
▁1918	-10.8969
▁dvd	-10.8973
view	-10.8974
▁momentos	-10.8977
▁mínimo	-10.8977
gil	-10.8977
▁arzobispo	-10.8984
ão	-10.8984
▁mach	-10.8987
▁adultos	-10.8988
▁enemigos	-10.8989
berto	-10.8992
-16	-10.8992
▁vehículo	-10.9007
dinámica	-10.9008
▁archivos	-10.9011
▁varía	-10.9013
dh	-10.9014
2.3	-10.9016
▁infraestructura	-10.9017
▁hitler	-10.9019
▁sudáfrica	-10.9022
israelí	-10.9023
▁1914	-10.9025
▁arqueológico	-10.9026
▁paseo	-10.9029
▁estuvieron	-10.9029
zh	-10.9034
▁gasto	-10.9034
▁vapor	-10.9036
▁cardenal	-10.904
▁bell	-10.9042
vich	-10.9047
▁servir	-10.9052
▁actúa	-10.9057
▁recon	-10.9061
▁gala	-10.9062
▁johann	-10.9064
▁escribe	-10.9065
▁estudiante	-10.9066
▁sentimiento	-10.9068
▁catalán	-10.9068
▁suceso	-10.9069
▁analiza	-10.9069
▁sucedió	-10.9072
▁carbono	-10.9074
▁andalucía	-10.9075
▁álvarez	-10.9075
▁reside	-10.9078
▁valley	-10.9081
▁instrumento	-10.9083
▁bogotá	-10.9086
lot	-10.9086
▁quedaron	-10.9086
▁lincoln	-10.9089
▁viva	-10.909
▁intercambio	-10.9093
▁jaime	-10.9093
▁representado	-10.9094
▁1928	-10.9095
lp	-10.9097
▁dona	-10.9097
▁probable	-10.91
▁concejal	-10.91
▁rai	-10.9101
▁lanzada	-10.9103
joy	-10.9107
veni	-10.911
kai	-10.9112
▁descarga	-10.9115
▁patrón	-10.9115
zen	-10.9116
▁demostra	-10.9121
▁llena	-10.9123
▁sujeto	-10.913
▁recopila	-10.9132
▁exitosa	-10.9132
ándola	-10.9132
agre	-10.9135
cate	-10.9144
▁1.7	-10.9146
▁incendio	-10.9151
▁necesidades	-10.9151
▁lucas	-10.9152
▁colina	-10.9152
▁llamadas	-10.9154
▁interpretar	-10.9165
▁universitaria	-10.9167
▁elimina	-10.9172
ric	-10.9175
▁siguen	-10.9176
▁actitud	-10.9178
óxido	-10.9178
▁barba	-10.9185
▁bolívar	-10.9196
▁observatorio	-10.9197
▁teléfono	-10.9199
▁usan	-10.9204
▁reporta	-10.9204
▁segura	-10.9204
▁aparte	-10.9204
▁ocupar	-10.9206
▁terrenos	-10.9208
▁brigada	-10.921
▁tropical	-10.9213
▁retirada	-10.9219
▁chico	-10.9221
▁interpretado	-10.9229
▁salas	-10.923
▁disfrut	-10.9231
▁armado	-10.9234
▁atraves	-10.9239
▁independientes	-10.9242
gni	-10.9249
▁ramas	-10.925
▁árabes	-10.9253
▁trenes	-10.9261
▁tomado	-10.9263
▁alimentación	-10.9267
▁electrónica	-10.9268
▁lograron	-10.927
▁típico	-10.9272
▁united	-10.9275
vert	-10.9278
▁montevideo	-10.9278
▁colón	-10.9279
▁free	-10.9283
zy	-10.9284
▁integrantes	-10.9284
▁patrona	-10.9285
▁obteniendo	-10.9289
▁levant	-10.9289
▁detecta	-10.9291
▁opción	-10.9298
▁complica	-10.9298
▁argumenta	-10.9299
▁surgió	-10.93
▁billboard	-10.9303
▁night	-10.9306
▁esfuerzo	-10.9309
lismo	-10.931
▁laboral	-10.9312
▁responde	-10.9314
▁vertical	-10.9318
▁mito	-10.932
▁destacados	-10.9321
▁viena	-10.9323
▁aero	-10.9327
▁disponibles	-10.9329
▁tarea	-10.9331
rilla	-10.9336
▁explora	-10.9339
▁fasci	-10.9341
▁1927	-10.9345
▁relacionado	-10.9347
▁iniciar	-10.9347
▁decidier	-10.9352
ótico	-10.9356
ete	-10.9358
▁regimiento	-10.9363
▁mateo	-10.9364
▁mantenimiento	-10.9365
▁normas	-10.9369
▁bacteria	-10.937
▁definitivamente	-10.9371
▁posesión	-10.9373
▁hero	-10.9376
gram	-10.9382
▁clark	-10.9385
▁camina	-10.9391
▁raíces	-10.9394
kel	-10.9394
▁cayó	-10.9404
▁acontecimientos	-10.9408
hn	-10.9415
▁tubo	-10.9415
▁mud	-10.9418
▁viajes	-10.942
pd	-10.9422
▁filipinas	-10.9427
ful	-10.9429
▁explota	-10.9429
▁aprendizaje	-10.9438
▁extensa	-10.9438
▁estrenada	-10.9438
▁ross	-10.9438
▁tormenta	-10.9439
quita	-10.9444
▁triple	-10.9445
▁instancia	-10.9445
▁himno	-10.9445
▁xii	-10.9445
stitución	-10.9447
▁determinada	-10.9449
cora	-10.945
ema	-10.9451
polis	-10.9451
▁proteínas	-10.9452
▁olvid	-10.9453
▁colabor	-10.9457
vit	-10.9465
▁cantón	-10.9468
▁evolucion	-10.947
▁human	-10.9472
▁lanzar	-10.9476
▁idiomas	-10.9478
▁daños	-10.948
▁exclusivamente	-10.9484
▁hermanas	-10.9487
▁financiera	-10.9489
ástica	-10.9491
lem	-10.9492
▁exposiciones	-10.9493
▁1926	-10.9495
▁buque	-10.9495
▁grados	-10.9496
abe	-10.9497
▁consecuencias	-10.9499
▁anna	-10.9501
▁consagra	-10.9502
gno	-10.9502
▁escocia	-10.9505
trop	-10.9505
lán	-10.9506
▁correo	-10.9506
▁aparato	-10.9507
▁fragmento	-10.9511
▁páginas	-10.9519
▁juntos	-10.9519
hara	-10.9521
▁cárcel	-10.9522
▁1925	-10.9525
-6	-10.9526
▁herramientas	-10.9534
▁fiel	-10.9534
▁carri	-10.9538
ptico	-10.9543
ç	-10.9544
iel	-10.9548
▁portugués	-10.9548
▁participado	-10.9548
▁pagar	-10.9551
▁producciones	-10.9552
▁massachusetts	-10.9555
vier	-10.9556
▁morir	-10.9559
▁salvo	-10.9561
▁hecha	-10.9563
▁kim	-10.9564
▁encuentros	-10.9567
mato	-10.9571
▁columnas	-10.9578
▁ocurrió	-10.9585
aux	-10.9586
▁conflictos	-10.9587
▁duro	-10.9587
▁tareas	-10.959
▁rojas	-10.9599
▁evangelio	-10.9601
▁académica	-10.9603
▁cerámica	-10.9603
▁paredes	-10.9604
▁prolonga	-10.9604
▁motiv	-10.9606
script	-10.9606
▁existentes	-10.9607
hart	-10.961
▁tendrá	-10.9611
▁viviendas	-10.9612
▁admira	-10.9615
age	-10.9618
▁controlar	-10.9619
huma	-10.962
▁solitario	-10.9621
▁pobreza	-10.9621
lítico	-10.9623
burn	-10.963
▁establecida	-10.963
piri	-10.9632
▁agrupación	-10.9633
▁riqueza	-10.9633
▁soporta	-10.9635
cionales	-10.9636
▁heredero	-10.9637
▁grove	-10.9642
plat	-10.9644
rell	-10.9645
▁hacerlo	-10.9648
▁concejo	-10.9649
▁contribuye	-10.9652
▁habilidades	-10.9654
▁nacionalista	-10.9654
thy	-10.9655
▁norman	-10.9656
▁organiz	-10.9657
▁marte	-10.9659
▁individuales	-10.9662
▁poema	-10.9668
bank	-10.9671
▁disposición	-10.9672
▁judía	-10.9674
▁1000	-10.9682
▁observar	-10.9683
▁enzima	-10.9686
gne	-10.9687
▁personalidad	-10.9689
▁separada	-10.9692
▁contemporánea	-10.9697
▁caus	-10.9699
ísimo	-10.97
▁turquía	-10.9701
▁exilio	-10.9703
▁sostiene	-10.9704
▁tim	-10.9706
▁reformas	-10.9708
▁1.8	-10.9714
▁relacionadas	-10.973
▁ultra	-10.9732
▁reducción	-10.9734
▁inaugurado	-10.9735
▁gama	-10.9736
▁seguidores	-10.9739
▁jazz	-10.974
▁teresa	-10.974
▁satisfac	-10.9746
▁suprema	-10.975
▁williams	-10.9754
▁registros	-10.9759
▁préstamo	-10.9765
▁víctor	-10.9768
▁campana	-10.9771
▁dueño	-10.9771
▁recuperación	-10.9776
▁impulso	-10.9776
▁habiendo	-10.9777
qa	-10.9777
life	-10.9785
tig	-10.9787
posicion	-10.9789
▁recomenda	-10.9793
▁organizada	-10.9795
▁clan	-10.9804
▁alcance	-10.9806
▁inversión	-10.9807
▁favorable	-10.9809
▁colonias	-10.9811
▁joe	-10.9813
▁1924	-10.9817
▁terremoto	-10.9818
cera	-10.9818
▁modernos	-10.9826
▁voluntad	-10.9829
▁vital	-10.9835
▁depósito	-10.984
▁esteban	-10.9841
ami	-10.9845
▁golfo	-10.9845
▁dañ	-10.9847
▁tío	-10.985
▁mortal	-10.9852
▁johnson	-10.9853
▁fácilmente	-10.9854
▁lidera	-10.9856
▁escasa	-10.986
▁puebla	-10.9863
▁franc	-10.9864
▁bando	-10.9867
▁tanque	-10.9867
▁rub	-10.9868
▁dispositivos	-10.9868
▁divisiones	-10.9871
▁emisión	-10.9873
▁clausura	-10.9878
▁recuerda	-10.9882
darse	-10.9885
▁alex	-10.9889
▁cierre	-10.989
▁genética	-10.9891
▁alterna	-10.9893
▁quince	-10.9894
▁peruano	-10.9895
▁xxi	-10.9896
▁supuesto	-10.9898
▁refugio	-10.9899
ance	-10.9901
▁zelanda	-10.9901
dujo	-10.9908
▁propone	-10.9911
▁aniversario	-10.9913
▁celebrado	-10.9914
▁aceite	-10.9917
▁xiv	-10.9917
▁ocupado	-10.9917
ova	-10.992
rid	-10.9921
▁ganando	-10.9928
▁sucede	-10.993
▁llegan	-10.9932
▁ligas	-10.9934
▁comparte	-10.994
▁frío	-10.994
▁condena	-10.994
▁cobre	-10.9941
▁beneficios	-10.9942
▁instalación	-10.9948
jón	-10.9956
▁desierto	-10.9959
▁imagina	-10.9959
vu	-10.9961
▁origina	-10.9961
▁cristianismo	-10.9962
▁paralelo	-10.9962
▁rebel	-10.9966
pond	-10.9966
▁recrea	-10.9967
▁sentencia	-10.9971
▁cuentan	-10.9971
▁usos	-10.9973
▁aprobación	-10.9974
2,2	-10.9979
▁euros	-10.9985
ander	-10.9987
▁entidades	-10.9987
▁empezar	-10.9988
ánica	-10.9989
▁preserva	-10.9998
▁seleccion	-11.0004
▁1922	-11.0004
▁paralela	-11.0005
▁monarca	-11.0005
▁otorgado	-11.0008
▁magnitud	-11.0009
▁acusado	-11.0011
▁expuls	-11.0013
▁polaco	-11.0014
▁embarca	-11.0017
▁venezolano	-11.0021
▁une	-11.0021
▁acelera	-11.0025
▁personales	-11.0029
▁detalles	-11.0035
▁santuario	-11.0036
▁hectáreas	-11.004
▁administrativo	-11.0041
▁acceder	-11.0042
▁convirtier	-11.0044
▁ropa	-11.0046
▁error	-11.0046
▁dibuja	-11.0048
▁blo	-11.0049
blanc	-11.0053
▁nadie	-11.0054
terapia	-11.0057
▁educativo	-11.0058
▁ligeramente	-11.0059
▁democrático	-11.006
▁hueso	-11.0069
▁fair	-11.0071
▁especifica	-11.0072
lock	-11.0076
▁1900	-11.0076
▁asesina	-11.0081
▁impe	-11.0082
▁peces	-11.0082
▁extranjera	-11.0083
▁duró	-11.0085
▁asistió	-11.0086
▁operador	-11.0089
stacó	-11.0093
tlán	-11.0099
▁valladolid	-11.0099
áceas	-11.01
▁relaciona	-11.01
▁profundo	-11.0103
▁distritos	-11.0106
▁construye	-11.011
▁prácticas	-11.0113
▁miami	-11.0126
▁hiper	-11.0128
cionado	-11.0132
▁apellido	-11.0134
éndole	-11.0135
▁reparti	-11.0136
▁recorre	-11.0146
▁visible	-11.0146
▁mani	-11.0147
▁karl	-11.0147
▁resolver	-11.015
▁paleo	-11.0151
▁lateral	-11.0152
▁reemplazado	-11.0152
▁arm	-11.0154
▁kg	-11.0155
▁poemas	-11.0155
▁originaria	-11.0155
▁1912	-11.0157
▁previo	-11.0159
▁inmigrantes	-11.0161
▁rebelión	-11.0162
▁médicos	-11.0163
▁aficionado	-11.0165
▁canadiense	-11.0169
ñi	-11.0171
▁limitada	-11.0171
▁costo	-11.0176
métrico	-11.0177
▁reparto	-11.0181
▁investigador	-11.0182
▁consideró	-11.0185
▁uniforme	-11.0186
▁recaud	-11.0187
▁semifinales	-11.0188
▁voces	-11.0189
▁católico	-11.019
▁live	-11.0192
brook	-11.0193
▁gabinete	-11.0193
▁tarjeta	-11.0193
cht	-11.0194
▁acabar	-11.0195
bru	-11.0197
▁prestigio	-11.0199
▁ilegal	-11.0201
▁armadas	-11.0201
▁fracaso	-11.0205
▁iso	-11.0205
▁cerebro	-11.0209
▁líquido	-11.0209
▁fechas	-11.0209
pareci	-11.021
▁modern	-11.0211
▁seres	-11.0211
▁acero	-11.0214
▁conjunta	-11.0216
▁espiritual	-11.0217
▁negocia	-11.0218
2,3	-11.0219
▁franja	-11.022
▁galicia	-11.0222
▁aprobó	-11.0228
▁montes	-11.0229
▁cinematográfica	-11.0232
▁alonso	-11.0232
bury	-11.0235
▁gubernamental	-11.0236
▁pasos	-11.0238
▁contienen	-11.0242
▁combati	-11.0243
▁subespecie	-11.0244
▁caballería	-11.0252
▁musulmanes	-11.0252
▁tradiciones	-11.0252
▁planifica	-11.0253
borg	-11.0261
tral	-11.0263
▁wilson	-11.0264
▁definitiva	-11.0265
▁anuncio	-11.0276
▁documenta	-11.0281
▁matemáticas	-11.0282
▁roger	-11.0286
▁esposo	-11.0288
▁gobernante	-11.0289
▁revel	-11.029
▁ejerció	-11.0292
▁islam	-11.0292
▁cuartos	-11.0292
▁creía	-11.0294
nell	-11.0295
▁model	-11.0295
▁flo	-11.0296
▁otoño	-11.0296
▁reseña	-11.0297
▁asociada	-11.0299
org	-11.0302
▁apoyar	-11.0303
quila	-11.0303
tradicionalmente	-11.0309
▁asegurar	-11.031
▁cañón	-11.0315
▁dividida	-11.0316
▁capace	-11.0317
▁tomando	-11.0322
▁columbia	-11.0322
▁comando	-11.0323
▁protocolo	-11.0324
▁experimental	-11.0326
▁creció	-11.0327
▁derrotar	-11.0328
▁jerusalén	-11.0332
▁residentes	-11.0333
poniendo	-11.0335
3,5	-11.0338
▁almacena	-11.0339
▁fallecido	-11.034
▁ofreció	-11.034
▁ruiz	-11.034
▁yacimiento	-11.0342
▁jardines	-11.0344
▁testigo	-11.0344
agra	-11.0347
▁arti	-11.0349
▁docente	-11.0352
mona	-11.0355
▁marqués	-11.0356
rand	-11.0362
▁2.2	-11.0364
▁centrales	-11.0368
▁efectiva	-11.0368
▁poseía	-11.0368
▁joan	-11.0369
▁abuelo	-11.0369
oide	-11.037
direct	-11.037
▁supremo	-11.0376
ísima	-11.038
▁atacar	-11.038
haus	-11.0383
▁difundi	-11.0384
▁street	-11.0385
▁diversidad	-11.0388
▁elevada	-11.0399
▁1923	-11.0399
2,6	-11.0402
bula	-11.041
▁agentes	-11.041
▁fuertemente	-11.0412
▁hernández	-11.0412
▁divorci	-11.0412
quero	-11.0419
▁distribuido	-11.042
▁permitía	-11.042
▁bast	-11.042
▁corredor	-11.0425
▁julia	-11.0425
▁relevante	-11.0428
▁historiadores	-11.043
▁gestiona	-11.0432
▁fruta	-11.0435
▁talleres	-11.0436
▁respondi	-11.0436
jin	-11.0441
▁seguía	-11.0441
▁noticia	-11.0443
wy	-11.0443
▁causas	-11.0443
▁repara	-11.0443
rad	-11.0446
▁conductor	-11.0451
▁laterales	-11.0451
▁institucional	-11.0452
▁enterrado	-11.0455
▁victor	-11.0461
▁irregular	-11.0465
rero	-11.0469
▁especializado	-11.0474
▁distribuye	-11.0477
▁promociona	-11.0479
▁realizadas	-11.048
▁napoleón	-11.0481
▁decisiones	-11.0481
▁cálculo	-11.0485
▁ciclista	-11.0485
▁respald	-11.0486
▁trataba	-11.0486
▁monarquía	-11.0489
uci	-11.0491
▁otomano	-11.0493
▁virtual	-11.0497
2.7	-11.0498
▁doctorado	-11.0498
▁eliminado	-11.05
▁selva	-11.0503
hir	-11.0503
▁mariano	-11.0504
▁cristóbal	-11.0505
▁archipiélago	-11.0509
▁azúcar	-11.0509
▁promover	-11.0509
▁pasaje	-11.0512
▁complementa	-11.0513
▁firmado	-11.0516
▁multitud	-11.0518
▁designación	-11.0522
aut	-11.0523
▁africano	-11.0526
▁rutas	-11.053
▁amiga	-11.0533
▁negó	-11.0537
▁jefferson	-11.0542
▁vegetación	-11.0549
▁seminario	-11.0555
ère	-11.0556
▁circular	-11.0559
▁cumbre	-11.056
ciente	-11.0561
▁defensor	-11.0561
bí	-11.0562
▁involucra	-11.0562
▁confederación	-11.0566
▁significativo	-11.0568
2,1	-11.0569
▁recuerdo	-11.057
vari	-11.0571
▁convención	-11.0571
▁hot	-11.0572
▁integración	-11.0575
▁ayudó	-11.0579
▁cursos	-11.0582
place	-11.0591
▁empleado	-11.0591
▁sexto	-11.0602
▁abrir	-11.0611
▁reproducción	-11.0611
▁relieve	-11.0611
▁hollywood	-11.0616
▁porcentaje	-11.0616
▁progreso	-11.0616
▁sé	-11.0617
▁autoriza	-11.0618
flor	-11.0622
gá	-11.0629
▁dominicana	-11.0629
inger	-11.063
▁cooperación	-11.063
▁occidentales	-11.0631
▁excava	-11.0636
girl	-11.0639
▁1921	-11.0643
▁ensayo	-11.0645
▁parcial	-11.0646
▁franklin	-11.0647
▁dispositivo	-11.0648
▁excelente	-11.0649
▁aceptó	-11.0649
▁pleno	-11.0652
ν	-11.0653
vor	-11.0655
▁tercio	-11.0659
▁liberales	-11.066
▁luci	-11.066
▁telenovela	-11.0661
▁techo	-11.0667
▁simon	-11.0668
▁funcionarios	-11.0668
▁debían	-11.0668
siguiendo	-11.0673
▁aparecer	-11.0676
▁maneja	-11.0679
▁influencias	-11.068
▁nieto	-11.068
▁walter	-11.0681
marine	-11.0683
▁fría	-11.0688
▁oscura	-11.069
▁elegir	-11.0696
▁vender	-11.0698
▁efectivo	-11.0707
▁sindicato	-11.0707
▁compila	-11.0709
▁andes	-11.0709
▁nacionalidad	-11.071
▁premier	-11.0711
▁localizado	-11.0712
▁profesora	-11.0712
▁partículas	-11.0713
е	-11.0715
▁patio	-11.0718
▁creador	-11.0721
▁intelectual	-11.0723
▁colecciones	-11.0723
▁arcos	-11.0725
▁epíteto	-11.0727
▁coincide	-11.0727
▁negros	-11.0728
▁cerrado	-11.073
▁1913	-11.0731
hist	-11.0733
▁católicos	-11.0738
▁hoja	-11.0739
▁ramírez	-11.0744
arque	-11.0747
▁adolescente	-11.0748
▁intentos	-11.0751
▁débil	-11.0753
▁entender	-11.0753
eve	-11.0761
▁gales	-11.0765
▁apunta	-11.0765
chester	-11.0767
igua	-11.0774
▁salta	-11.0779
▁surge	-11.078
▁notables	-11.0781
▁inmediato	-11.0781
▁descubre	-11.0783
н	-11.0786
já	-11.0788
▁cincuenta	-11.079
▁previa	-11.0794
▁castig	-11.0794
rev	-11.08
▁calendario	-11.0802
mez	-11.0805
▁otorgó	-11.0807
▁indígena	-11.0809
mec	-11.081
▁jor	-11.0818
▁jugado	-11.0821
▁vivienda	-11.0822
▁equilibrio	-11.0823
▁piedras	-11.0825
▁taller	-11.0836
dge	-11.084
dt	-11.0843
▁with	-11.0844
gina	-11.0844
▁coincidi	-11.0844
▁comerciante	-11.0844
▁irán	-11.0846
pina	-11.0847
▁inspirado	-11.0851
▁colorado	-11.0853
▁solista	-11.0854
▁pola	-11.0856
▁evita	-11.0857
▁buenas	-11.0861
▁audio	-11.0862
▁distingui	-11.087
▁reunir	-11.0871
ianos	-11.0873
▁málaga	-11.0874
▁capturado	-11.0876
▁eliminar	-11.0877
▁intentar	-11.0879
▁maine	-11.088
▁pudieron	-11.0882
▁dependencia	-11.0891
▁reducido	-11.0891
▁guadalajara	-11.0895
▁philip	-11.0896
▁rebeldes	-11.0896
quel	-11.0897
2,7	-11.0903
▁videojuegos	-11.0907
▁servidor	-11.0908
▁lineal	-11.0911
shire	-11.0912
▁aspira	-11.0916
▁puedan	-11.0921
▁siria	-11.0922
▁salvar	-11.0926
▁izquierdo	-11.0929
▁cima	-11.093
▁best	-11.0932
▁virus	-11.0933
▁artillería	-11.0933
slav	-11.0934
▁falla	-11.0939
▁característico	-11.095
▁ferroviaria	-11.095
▁elegida	-11.0955
▁graves	-11.0958
▁arn	-11.096
venir	-11.0962
▁120	-11.0963
▁good	-11.0965
▁estatuto	-11.0968
▁semillas	-11.0969
▁ever	-11.0973
▁símbolos	-11.0973
frentó	-11.0975
▁cubierto	-11.0976
vado	-11.098
▁productores	-11.0985
▁interpretada	-11.0986
▁candidatos	-11.0989
geno	-11.0989
▁esquina	-11.099
ote	-11.0991
▁rector	-11.0995
▁marcado	-11.0996
▁young	-11.0998
▁convertir	-11.1001
▁filas	-11.1004
▁millón	-11.1004
▁esclavos	-11.1006
▁imposible	-11.1008
▁toneladas	-11.101
▁asiento	-11.101
imi	-11.1012
▁proto	-11.1017
▁alrededores	-11.1017
▁bella	-11.1018
▁confianza	-11.1019
▁localización	-11.1022
hom	-11.1026
▁oxígeno	-11.1027
▁volúmenes	-11.1027
▁retiro	-11.1027
▁sigla	-11.1031
▁electr	-11.1032
▁paris	-11.1034
-5	-11.1035
andro	-11.1036
▁fallecimiento	-11.104
▁kara	-11.104
▁fabricante	-11.1045
▁delantero	-11.1046
▁muere	-11.1048
▁enferm	-11.1048
▁oculta	-11.1051
2,4	-11.106
▁futura	-11.106
▁sombra	-11.1062
▁hit	-11.1063
▁escucha	-11.1064
tula	-11.1065
▁enamora	-11.1066
▁condenado	-11.1071
▁rocas	-11.1073
worth	-11.1074
▁france	-11.1075
▁podrá	-11.1084
▁sucesión	-11.1087
▁rescata	-11.1089
▁integrada	-11.109
▁individuo	-11.1091
▁logrado	-11.1093
▁dioses	-11.1094
▁llevada	-11.1094
▁cádiz	-11.1096
▁poderoso	-11.1097
▁máquinas	-11.1097
rata	-11.1104
▁vecina	-11.1117
▁apariencia	-11.1117
▁progres	-11.1123
▁aceptar	-11.1125
▁comentarios	-11.1127
▁eventual	-11.113
▁guía	-11.1131
▁cuentos	-11.1139
▁atmósfera	-11.1139
▁pensar	-11.1144
▁morales	-11.1146
▁organizar	-11.1149
utilización	-11.1154
▁filósofo	-11.1156
▁crucero	-11.1158
▁constituyen	-11.1158
▁conciencia	-11.1165
▁convencional	-11.1167
▁suministro	-11.1169
▁patria	-11.1171
mayo	-11.1172
▁pudiendo	-11.1174
▁sinopsis	-11.1174
▁protegida	-11.1178
▁proyecta	-11.1184
▁colectivo	-11.1185
▁convocado	-11.1186
▁amp	-11.1188
▁atentado	-11.1191
•	-11.1196
▁plato	-11.1196
há	-11.1202
▁campamento	-11.1204
▁solicit	-11.1205
▁desaparecido	-11.1209
▁encarg	-11.1211
▁cuartel	-11.1213
▁kong	-11.1218
▁rasgos	-11.1219
▁relativa	-11.1219
▁gale	-11.1228
▁augusto	-11.1229
idio	-11.1229
▁costera	-11.123
▁emitido	-11.1231
▁open	-11.1236
▁negociaciones	-11.1237
▁fred	-11.1238
р	-11.1239
▁identificado	-11.1241
▁expandi	-11.1248
▁douglas	-11.1252
quet	-11.1256
▁grant	-11.1257
rit	-11.126
▁tecnológico	-11.1261
▁perfil	-11.1264
▁cañones	-11.1265
▁dinamarca	-11.1266
cino	-11.1272
▁escultor	-11.1275
▁filme	-11.1275
▁evidente	-11.1283
▁bordo	-11.1284
▁band	-11.1292
▁monumentos	-11.1294
▁valenciana	-11.1299
frag	-11.1303
▁testimonio	-11.1305
▁segmento	-11.1305
▁carolina	-11.1312
▁oak	-11.1314
▁volcán	-11.1315
▁cli	-11.1318
▁peor	-11.132
▁silva	-11.1322
ū	-11.1327
▁elaboración	-11.1332
▁impuestos	-11.1332
▁definido	-11.1336
▁ejecuta	-11.1336
▁gallego	-11.1341
▁1911	-11.1341
▁mam	-11.1342
▁superar	-11.1344
▁criminal	-11.1345
2.8	-11.1348
▁beca	-11.1348
▁claramente	-11.135
▁meridional	-11.1354
▁legado	-11.1355
▁apoy	-11.1359
▁saca	-11.136
▁expone	-11.1361
▁asalto	-11.1363
▁octavo	-11.1367
▁pacto	-11.1369
▁jurídica	-11.1376
▁test	-11.1378
▁secciones	-11.1379
▁soto	-11.1381
fá	-11.1387
▁cubre	-11.1389
▁notas	-11.1392
▁entertainment	-11.1394
▁trasladado	-11.1397
▁definir	-11.1398
▁liberado	-11.1399
protagoniza	-11.14
▁impone	-11.1402
▁asociaciones	-11.1404
▁palo	-11.141
precisamente	-11.1412
oria	-11.1415
▁amante	-11.1417
▁apple	-11.1418
▁fro	-11.142
▁bilbao	-11.142
▁buques	-11.142
▁polo	-11.1422
▁matt	-11.1424
▁realista	-11.1427
▁legislatura	-11.1434
▁testamento	-11.1438
▁paquete	-11.1439
filia	-11.1441
▁mínima	-11.1443
▁contempla	-11.1443
▁caballos	-11.1443
▁rivera	-11.1447
▁jiménez	-11.1447
▁consejero	-11.1447
▁variedades	-11.1451
▁incremento	-11.1452
▁registrado	-11.1454
▁grabaciones	-11.1456
▁filial	-11.1467
etti	-11.1472
▁caer	-11.1476
▁1915	-11.1478
▁átomo	-11.1479
▁especializada	-11.1482
light	-11.1484
▁industriales	-11.1486
▁vendió	-11.1487
escu	-11.1492
▁2.4	-11.1495
▁manuscrito	-11.1496
▁demócrata	-11.1501
▁maestra	-11.1501
▁sustituy	-11.1508
5.000	-11.1509
▁intensa	-11.1514
▁renacimiento	-11.1519
▁señales	-11.1521
▁transformación	-11.1523
▁brinda	-11.1524
▁aloja	-11.1524
▁fibra	-11.1525
▁zamora	-11.1532
quilla	-11.1533
▁directora	-11.1534
▁arizona	-11.1537
▁enlace	-11.1539
▁times	-11.1541
▁emilio	-11.1542
▁desarrollada	-11.1545
▁germán	-11.1545
▁moreno	-11.1545
▁continuo	-11.155
▁escaso	-11.1554
▁prisioneros	-11.1559
▁alfredo	-11.1565
▁manual	-11.157
ł	-11.1573
▁ibérica	-11.1587
▁virtud	-11.1587
▁alas	-11.1588
1.9	-11.1588
▁sociedades	-11.159
▁clientes	-11.159
▁situaciones	-11.16
▁rebotes	-11.16
▁tensión	-11.16
▁imita	-11.1603
▁trabajaba	-11.1603
▁asocia	-11.1604
▁atenas	-11.1606
cardi	-11.1607
3,2	-11.1612
▁limitado	-11.1613
▁cuadrados	-11.1615
▁detalla	-11.1617
▁intérprete	-11.1618
▁veinti	-11.1619
▁dispuesto	-11.162
▁dúo	-11.1623
▁descendientes	-11.1624
▁adicionales	-11.1625
▁suave	-11.1627
▁nicaragua	-11.1627
▁ninguno	-11.1627
sburg	-11.163
▁nativos	-11.1632
▁burgos	-11.1635
▁habilidad	-11.1639
▁parecer	-11.1641
▁soberanía	-11.1641
▁millas	-11.1643
▁secundarios	-11.1645
▁ingleses	-11.1646
▁www	-11.165
▁voluntario	-11.165
▁cosecha	-11.1651
▁rurales	-11.1651
▁comand	-11.1657
▁christian	-11.1657
▁referir	-11.1658
▁cuello	-11.1658
▁paulo	-11.1662
▁radiación	-11.1668
▁temática	-11.1669
tología	-11.1675
▁frutos	-11.1678
▁republicana	-11.1678
▁concreto	-11.1679
punt	-11.1693
▁representada	-11.1695
▁catalana	-11.1696
▁homosexual	-11.1705
pedi	-11.1707
▁maíz	-11.171
▁participan	-11.171
▁provisional	-11.1714
▁cantar	-11.1721
▁vot	-11.1722
gica	-11.1723
3.2	-11.1724
gate	-11.1725
▁petición	-11.1728
▁reúne	-11.1729
3.5	-11.1731
▁atrapa	-11.1733
▁german	-11.1736
▁animación	-11.1738
born	-11.1739
▁alguien	-11.1742
▁costumbres	-11.1743
guay	-11.1743
▁desaparición	-11.1745
▁university	-11.1747
▁hermandad	-11.1751
▁ribera	-11.1751
▁pozo	-11.1754
barri	-11.1756
▁contraste	-11.1756
▁august	-11.1758
▁adicional	-11.1758
▁tigre	-11.1758
▁1916	-11.1764
▁belga	-11.1765
▁clínica	-11.1765
get	-11.1765
▁amistoso	-11.177
▁desconocido	-11.177
▁desembarc	-11.1774
lov	-11.1777
▁1905	-11.178
▁serán	-11.1783
▁escritora	-11.1786
▁compleja	-11.1788
▁globo	-11.179
uv	-11.1791
700	-11.1797
▁carbón	-11.18
▁little	-11.1802
▁taylor	-11.1807
head	-11.1808
▁trinidad	-11.1811
▁ojo	-11.1812
▁postura	-11.1815
▁afect	-11.1816
▁dialecto	-11.1816
▁parecía	-11.1816
▁oblig	-11.1825
ilio	-11.1827
▁éstos	-11.1828
arro	-11.183
▁genes	-11.1835
▁igualdad	-11.1838
▁certamen	-11.1839
▁culmina	-11.1841
▁proporcion	-11.1851
▁guinea	-11.1854
▁pierde	-11.1855
yun	-11.1857
▁luchar	-11.1857
▁viii	-11.1857
▁intensidad	-11.1858
▁encuesta	-11.1858
▁carol	-11.1859
▁véase	-11.1862
▁modalidad	-11.1862
▁masiva	-11.1866
▁derrotó	-11.1867
▁helen	-11.1869
▁beach	-11.187
▁jurisdicción	-11.1872
▁revuelta	-11.1872
▁nativa	-11.1872
▁jordan	-11.1872
▁barroco	-11.1877
▁propuesto	-11.1879
▁interesante	-11.1882
▁harry	-11.1883
▁mike	-11.1884
▁pila	-11.189
▁dibujos	-11.1893
▁productora	-11.1896
▁jr	-11.19
▁secuela	-11.19
iforme	-11.1903
▁matemático	-11.1904
▁esquema	-11.1907
▁requisito	-11.1909
▁estatales	-11.191
▁nieve	-11.1915
▁gato	-11.1922
▁250	-11.1923
▁ascendi	-11.1925
▁cae	-11.1928
▁daba	-11.1932
▁polémica	-11.1932
ρ	-11.1937
2,9	-11.1941
▁asunción	-11.1942
▁singular	-11.1942
▁navidad	-11.1947
▁positiva	-11.1948
▁atribuye	-11.1951
▁complet	-11.1952
▁hungría	-11.1956
▁invadi	-11.1958
▁emitió	-11.1961
▁cuarenta	-11.1965
▁represent	-11.1969
isco	-11.197
▁conservan	-11.1972
▁arturo	-11.1976
uli	-11.198
▁óscar	-11.1981
▁afro	-11.199
ciden	-11.1992
▁rodaje	-11.1993
tiendo	-11.1994
▁primario	-11.1997
beau	-11.2001
▁diálogo	-11.2003
▁simula	-11.2006
gt	-11.2012
3.1	-11.2015
▁nombrada	-11.2015
▁pertenecen	-11.2015
jero	-11.2015
▁ideología	-11.2027
▁ofensiva	-11.2031
▁discuti	-11.2032
▁ofrecer	-11.2036
▁raúl	-11.2039
▁afectado	-11.2041
▁bautista	-11.2041
▁manifestaciones	-11.2041
▁uefa	-11.2042
-10	-11.2044
carbon	-11.2045
▁insectos	-11.2046
▁ensayos	-11.2057
▁his	-11.2057
▁celebrada	-11.2063
▁bóveda	-11.2065
▁alexander	-11.207
▁discográfica	-11.2074
▁corrupción	-11.2074
▁medina	-11.2075
▁disputado	-11.2079
▁admiti	-11.2082
▁recibieron	-11.2084
▁hundi	-11.2085
▁oscar	-11.2086
▁identificar	-11.2086
▁dibujo	-11.2086
▁bernardo	-11.2087
▁citado	-11.2087
▁cuestiona	-11.2093
▁afluente	-11.2094
▁consul	-11.2099
▁infinit	-11.21
▁reconstrucción	-11.2108
▁recluta	-11.2108
▁destinada	-11.2108
▁lesión	-11.2111
▁hidalgo	-11.2112
▁legislativa	-11.2112
mund	-11.2112
▁consistía	-11.2112
▁sudamericano	-11.2113
▁algoritmo	-11.2117
▁ferroviario	-11.2117
pía	-11.2122
▁construcciones	-11.2127
▁directiva	-11.2127
▁secreta	-11.2128
▁misa	-11.213
▁águila	-11.2131
▁detener	-11.2134
▁pared	-11.2135
▁viajar	-11.2139
ø	-11.2141
▁transform	-11.2141
▁jim	-11.2143
2,8	-11.2147
empe	-11.2149
▁huelga	-11.2151
▁estética	-11.2152
▁restantes	-11.2155
▁pobres	-11.2158
ícula	-11.216
▁gutiérrez	-11.216
▁reunió	-11.2165
▁protector	-11.2165
▁mitología	-11.2173
▁transferencia	-11.2175
▁adecuado	-11.2175
▁articula	-11.2176
▁leer	-11.2177
▁produjer	-11.2179
▁oficio	-11.2182
tif	-11.2188
▁tony	-11.2193
▁conduce	-11.2194
▁propus	-11.2201
▁minerales	-11.2204
▁realizando	-11.2205
с	-11.2208
▁sábado	-11.2208
▁cartel	-11.221
▁proporcionar	-11.2211
▁reaccione	-11.2215
▁selecciones	-11.2216
▁célebre	-11.2218
▁suerte	-11.2219
▁1908	-11.2221
▁nava	-11.2222
▁vacío	-11.2223
pita	-11.2224
pper	-11.2228
lítica	-11.2229
▁retorno	-11.2231
▁síntomas	-11.2232
ridge	-11.2239
gall	-11.2241
cluyó	-11.2241
▁cuestiones	-11.2242
▁dominante	-11.2242
hé	-11.2244
▁blas	-11.2246
▁hispano	-11.2246
▁orgánica	-11.2247
▁champ	-11.2248
▁albacete	-11.2261
▁darle	-11.2274
▁cúpula	-11.2276
▁ocurrido	-11.2276
▁huevos	-11.2276
▁traje	-11.2277
▁aparentemente	-11.2278
▁visitantes	-11.228
▁comprometi	-11.2281
▁alcohol	-11.2281
▁espina	-11.2281
▁comprendi	-11.2281
▁costos	-11.2281
▁saque	-11.2284
▁bate	-11.2284
▁confes	-11.2288
▁herrera	-11.2291
▁dragon	-11.2296
▁encabeza	-11.2296
▁subleva	-11.2297
ículo	-11.2298
▁peruana	-11.23
▁demostrar	-11.2305
▁volvier	-11.2305
tempo	-11.2306
▁sesión	-11.2307
▁boston	-11.2308
▁parecido	-11.2309
▁vera	-11.231
▁educativa	-11.2322
▁1906	-11.2322
,1	-11.2327
▁competiciones	-11.233
▁sindical	-11.2331
▁celebrar	-11.2331
lino	-11.2339
▁reloj	-11.2339
▁emisora	-11.2344
▁francisca	-11.2344
▁reporte	-11.2345
▁fundadores	-11.2345
▁circunstancias	-11.2346
▁racional	-11.2346
▁pendiente	-11.2349
▁destruido	-11.235
▁diaria	-11.235
enti	-11.235
▁trece	-11.2354
▁gusto	-11.236
▁zapat	-11.2363
▁abandonado	-11.2372
▁esperaba	-11.2374
▁mr	-11.2375
ð	-11.2379
▁colon	-11.2379
▁generar	-11.2382
▁cercanías	-11.2382
▁pesado	-11.2387
▁competir	-11.2388
▁roble	-11.2389
▁vencer	-11.2392
cuar	-11.2395
▁kentucky	-11.2398
▁biblia	-11.2398
▁ernesto	-11.24
▁profesores	-11.2401
▁lobo	-11.2402
▁viernes	-11.2409
2.9	-11.2409
▁plate	-11.241
▁aprobado	-11.2418
▁molina	-11.242
▁vestido	-11.2423
▁pide	-11.2424
▁diplomático	-11.2428
▁brian	-11.2428
▁latinoamérica	-11.2438
▁salamanca	-11.2438
▁são	-11.2439
▁pere	-11.2442
4,5	-11.2444
▁prado	-11.2447
▁particulares	-11.2452
▁sustituido	-11.2452
▁referente	-11.2452
tech	-11.2456
▁berna	-11.2462
▁pascua	-11.2464
▁ángulo	-11.2467
▁fichó	-11.2467
▁publicidad	-11.2469
▁eliminación	-11.2469
▁constituyente	-11.2474
▁henri	-11.248
▁embalse	-11.2487
▁rayos	-11.2491
▁rever	-11.2492
▁permiso	-11.2492
▁perdiendo	-11.2492
▁destruir	-11.2493
▁existente	-11.2493
▁kal	-11.2497
ι	-11.2497
▁oscila	-11.2497
▁respeta	-11.2498
▁legislativo	-11.2502
▁anime	-11.2502
3,3	-11.2502
xia	-11.2504
▁votación	-11.2504
▁descubrir	-11.2507
▁murieron	-11.2507
fici	-11.2508
▁estableciero	-11.2509
elle	-11.2512
▁rodrigo	-11.2512
▁marcador	-11.2514
▁carece	-11.2514
▁probabilidad	-11.2517
▁marrón	-11.252
▁caracteres	-11.2522
▁case	-11.2527
▁gloria	-11.2528
▁teología	-11.253
3.3	-11.2531
▁marruecos	-11.2532
▁tribus	-11.2534
▁cliente	-11.254
▁enfoca	-11.2541
▁disney	-11.2547
▁cass	-11.2547
▁diseñada	-11.2552
▁public	-11.2552
mori	-11.2566
▁atractivo	-11.2567
▁tango	-11.257
monte	-11.257
ped	-11.2572
▁contratado	-11.2573
▁oportunidades	-11.2574
3,1	-11.2576
▁vocalista	-11.2576
ο	-11.2577
▁hierba	-11.2577
zel	-11.2577
▁rumbo	-11.2579
▁pertenecía	-11.2583
mili	-11.2585
remos	-11.2585
▁liderazgo	-11.2587
▁membrana	-11.2587
▁ecuación	-11.2587
fundamentalmente	-11.2589
▁comprar	-11.2589
▁cápita	-11.2592
▁extrema	-11.2592
▁vietnam	-11.2608
▁béisbol	-11.2612
lier	-11.2612
▁impresion	-11.2616
▁gold	-11.2616
▁indic	-11.2617
aki	-11.2617
▁contenía	-11.2623
▁biológica	-11.2626
▁guionista	-11.2627
▁bizantino	-11.2627
▁miedo	-11.2628
▁aeronave	-11.2632
▁posibilidades	-11.2638
enberg	-11.2641
▁bicicleta	-11.2642
▁oklahoma	-11.2642
ída	-11.2642
▁fundamentales	-11.2644
▁campus	-11.2647
▁absoluto	-11.2647
▁disparo	-11.2648
▁barrera	-11.2652
ı	-11.2652
▁conseguido	-11.2652
érico	-11.2661
▁distingue	-11.2662
▁síntesis	-11.2662
▁fósiles	-11.2669
▁bull	-11.267
▁postula	-11.2671
ógeno	-11.2672
▁empresarial	-11.268
▁suyo	-11.2683
▁protestante	-11.2686
▁margarita	-11.2687
▁football	-11.2698
▁pasión	-11.2698
▁sagrado	-11.2698
▁wild	-11.27
▁estatus	-11.2706
▁ligero	-11.2712
lusión	-11.2715
▁parcialmente	-11.2716
▁hunt	-11.2719
▁coloc	-11.2722
▁aborda	-11.2722
▁predic	-11.2728
▁hidrógeno	-11.2733
gener	-11.2736
▁tortura	-11.2738
▁basílica	-11.2738
naranja	-11.2738
▁macro	-11.2739
▁variaciones	-11.2745
hui	-11.2754
▁mixta	-11.2754
organ	-11.2755
book	-11.2756
▁siente	-11.2757
▁cancha	-11.276
▁lord	-11.2763
▁húmedo	-11.2764
▁fortuna	-11.2764
▁conocen	-11.2766
▁1909	-11.2772
▁jugaba	-11.2775
▁expulsado	-11.2777
pesa	-11.2777
ificada	-11.2779
▁encontrarse	-11.2782
▁madison	-11.2784
▁justifica	-11.2788
▁lingüística	-11.2789
▁cosmo	-11.2792
▁quedan	-11.2794
▁penetra	-11.2795
▁janeiro	-11.2795
▁explicar	-11.2795
▁interfa	-11.2795
andra	-11.2795
▁almirante	-11.2799
▁célula	-11.2802
▁daño	-11.2804
▁concluye	-11.2804
▁exitoso	-11.2804
▁orientales	-11.2805
ulares	-11.2808
▁bebida	-11.281
▁steve	-11.2811
▁delegado	-11.2815
▁0.02	-11.282
▁solía	-11.2821
▁altamente	-11.2826
▁escuadr	-11.2826
▁sabor	-11.2832
▁minoría	-11.2832
▁salvaje	-11.2832
▁paciente	-11.2832
▁medicamento	-11.2835
▁sudamérica	-11.2835
ça	-11.2835
▁oviedo	-11.2835
▁ocasiona	-11.2836
▁alternativo	-11.2836
▁olímpico	-11.2838
▁construyeron	-11.284
▁nombra	-11.2845
▁hábito	-11.2845
puesto	-11.285
▁gene	-11.285
▁séptimo	-11.2851
▁ritual	-11.2851
▁bota	-11.2852
▁shin	-11.2853
▁usó	-11.2858
▁consola	-11.2867
▁integró	-11.2868
▁botánica	-11.2871
▁cataloga	-11.2872
bona	-11.2872
▁mencionada	-11.2873
▁anuales	-11.2874
▁auxiliar	-11.2876
▁portuguesa	-11.2882
▁manipula	-11.2882
▁aviación	-11.2885
▁romero	-11.2886
▁arquitectónico	-11.2887
▁geográfico	-11.2887
revisión	-11.2889
▁pase	-11.2891
conduct	-11.2893
▁espectro	-11.2897
▁instaló	-11.2897
▁microsoft	-11.2902
▁visitar	-11.2905
▁proyect	-11.2907
▁josef	-11.2911
ô	-11.2913
▁electricidad	-11.2913
▁trastorno	-11.2913
▁descart	-11.2914
3,4	-11.2915
▁viuda	-11.2922
ا	-11.2923
▁demostró	-11.2923
▁persa	-11.2924
▁system	-11.2928
ciano	-11.293
▁protegido	-11.2933
▁altar	-11.2934
▁horizontal	-11.2938
▁influy	-11.2939
▁ruinas	-11.2941
▁morris	-11.2942
▁diagnóstico	-11.2944
proteína	-11.2944
▁redact	-11.2946
had	-11.2948
elia	-11.2959
в	-11.2959
▁emergencia	-11.2959
▁sesiones	-11.2961
▁perdieron	-11.2969
▁santander	-11.297
▁psicología	-11.297
▁sergio	-11.2971
▁dj	-11.2972
▁1907	-11.2972
diseñ	-11.2983
ingen	-11.2985
▁señaló	-11.2989
ender	-11.2989
▁habitualmente	-11.2995
▁sexta	-11.2995
â	-11.2996
▁autopista	-11.2996
▁lewis	-11.2997
▁retirarse	-11.3001
▁group	-11.3002
▁observación	-11.3011
▁integral	-11.3013
▁iniciado	-11.3017
▁bits	-11.3017
▁debuta	-11.3018
▁licenciado	-11.3019
▁guadalupe	-11.3022
▁wolf	-11.3022
▁herencia	-11.3023
▁leche	-11.3025
▁egipcio	-11.3027
▁vector	-11.3032
▁fuga	-11.3034
▁describir	-11.3038
▁iban	-11.304
▁mamíferos	-11.3043
▁0.01	-11.3043
▁relacionada	-11.3049
▁cerrada	-11.3051
▁electrones	-11.3058
▁sólido	-11.3059
▁orientación	-11.3069
▁bernard	-11.3075
▁pilar	-11.3076
▁usualmente	-11.308
▁oxford	-11.308
▁afuera	-11.3085
▁conforman	-11.3087
▁judío	-11.3088
č	-11.309
quino	-11.3095
▁discípulo	-11.3101
▁ramal	-11.3101
▁biología	-11.3102
▁phil	-11.3106
▁retablo	-11.3111
▁ejercer	-11.3112
right	-11.3112
oh	-11.3115
▁ocupada	-11.3116
pter	-11.3122
▁orilla	-11.3123
▁gobernación	-11.3123
phe	-11.3133
ñón	-11.3136
μ	-11.3138
▁milicia	-11.3138
▁retirado	-11.3139
▁comienzan	-11.3143
τ	-11.3143
uria	-11.3144
▁impre	-11.3149
▁africana	-11.3153
▁desaparece	-11.3154
▁simón	-11.3155
▁tomada	-11.3156
▁persecución	-11.3159
▁aventuras	-11.3159
▁rodeado	-11.3161
▁ejecutado	-11.3164
▁neutral	-11.3165
▁alcanzado	-11.317
▁intermedia	-11.3171
▁rostro	-11.3176
▁state	-11.3178
▁sueco	-11.3179
▁gustavo	-11.3183
▁recta	-11.3183
▁félix	-11.3191
▁dominic	-11.3192
corp	-11.3196
▁soldado	-11.3203
▁negativo	-11.3203
▁1904	-11.3204
▁god	-11.3208
▁silencio	-11.3223
▁investiga	-11.3225
▁procura	-11.3232
▁gregorio	-11.3233
▁identificación	-11.3236
▁andrea	-11.3245
▁1902	-11.3247
▁carter	-11.3249
yama	-11.3258
▁adquirido	-11.3259
▁lleno	-11.326
▁errores	-11.3263
▁comentó	-11.3265
▁japoneses	-11.3271
▁reuniones	-11.3271
▁miller	-11.328
▁andrew	-11.3281
▁1880	-11.3291
▁palm	-11.3292
▁serbia	-11.3292
▁harrison	-11.3303
▁patente	-11.3305
▁asignado	-11.3308
▁amateur	-11.3319
▁aplicar	-11.3322
▁1890	-11.3324
▁pobre	-11.334
▁proclam	-11.334
color	-11.3342
▁enfermo	-11.3343
▁influyente	-11.3346
▁mérida	-11.3352
▁pionero	-11.3352
▁ducado	-11.3356
▁manejo	-11.3359
▁irak	-11.3362
ić	-11.3366
▁benito	-11.3368
▁asesino	-11.3368
▁fray	-11.337
▁facilita	-11.3372
▁componente	-11.3373
▁composiciones	-11.3373
mura	-11.3377
▁adyacente	-11.3379
▁temprano	-11.3379
▁bello	-11.3379
▁baño	-11.338
▁almacenamiento	-11.3381
▁desplazamiento	-11.3381
▁legend	-11.3382
▁bolsa	-11.3384
▁adecuada	-11.3387
▁escalera	-11.339
▁mérito	-11.339
▁morgan	-11.339
▁periodismo	-11.3395
▁pretende	-11.3396
▁mineral	-11.3397
▁1903	-11.3403
▁encarna	-11.3405
▁diccionario	-11.3406
lex	-11.3407
▁norteamericano	-11.3408
▁nobleza	-11.3409
▁batallón	-11.3411
▁jesuita	-11.3411
livi	-11.3412
▁colonos	-11.3412
▁hereda	-11.3413
▁nutri	-11.3414
▁veracruz	-11.3428
▁sesenta	-11.3428
lou	-11.3431
▁corporación	-11.3433
▁blu	-11.3434
▁davis	-11.3437
▁inaugurada	-11.3438
▁relevancia	-11.3438
▁cinturón	-11.3444
▁vínculo	-11.3444
▁romper	-11.3444
▁disminuye	-11.3447
▁originario	-11.3455
▁ganadería	-11.3455
▁habitación	-11.3458
▁icono	-11.3458
▁evalua	-11.3459
▁islámico	-11.346
▁vidrio	-11.3461
▁granja	-11.3464
▁tennessee	-11.3466
▁circulación	-11.3466
▁crimen	-11.3467
▁fresco	-11.3467
▁llave	-11.3471
▁mencionar	-11.3474
▁continuaron	-11.3474
▁uruguayo	-11.3476
compuso	-11.3476
▁marcada	-11.348
▁etnia	-11.3481
▁1870	-11.3483
▁llevando	-11.3483
▁aboli	-11.3486
oper	-11.3491
▁inspiración	-11.3491
▁propaga	-11.3494
▁ignora	-11.3498
▁beneficia	-11.3499
▁sobrino	-11.3499
patía	-11.3499
▁litoral	-11.3499
▁jane	-11.3501
▁ascendido	-11.3508
▁forestal	-11.3509
▁tenis	-11.3511
▁descendi	-11.3516
▁milán	-11.3517
▁arthur	-11.3521
▁mercedes	-11.3524
▁power	-11.3525
▁bueno	-11.3525
▁navegación	-11.3526
▁diseñador	-11.3526
▁rioja	-11.3528
▁sacar	-11.353
▁muda	-11.3531
▁homónima	-11.3532
▁arreglo	-11.3532
▁terminado	-11.3544
▁rechazó	-11.3548
▁precisión	-11.3548
ault	-11.3549
▁reduce	-11.3551
▁ruido	-11.3553
▁catálogo	-11.3554
gía	-11.3554
▁impreso	-11.3557
▁reconocer	-11.3558
▁varones	-11.3561
▁escuadra	-11.3569
▁diplomática	-11.357
▁interacción	-11.357
court	-11.3573
▁parroquial	-11.3579
▁pine	-11.3579
▁corteza	-11.3584
▁eric	-11.3584
▁matemática	-11.3584
▁monumental	-11.3592
▁oaxaca	-11.3592
▁conforme	-11.3594
work	-11.3598
▁presentaciones	-11.3599
▁pose	-11.3601
feld	-11.3609
▁congregación	-11.3615
wick	-11.362
▁colectiva	-11.362
educa	-11.3621
▁parlamentar	-11.3621
7,5	-11.3628
▁cambiado	-11.3631
▁manifiesto	-11.3631
▁catalina	-11.3633
3,6	-11.3635
dem	-11.3636
▁parlamentaria	-11.3641
▁gonzalo	-11.3642
▁etimología	-11.3648
▁franquicia	-11.3648
▁cumple	-11.3648
▁vila	-11.365
▁nombramiento	-11.365
▁permanecer	-11.365
▁permitiendo	-11.3652
▁beneficio	-11.3656
bridge	-11.3656
▁cobra	-11.3657
▁relata	-11.3659
▁aumentó	-11.3659
▁pretendía	-11.3659
▁brad	-11.3659
▁antoni	-11.3662
▁demostrado	-11.3662
▁principado	-11.3664
▁héctor	-11.3665
▁álvaro	-11.3665
▁pescado	-11.3665
▁prometi	-11.3666
▁prusia	-11.367
▁editado	-11.3672
▁milagro	-11.3676
▁cedido	-11.3676
▁cirugía	-11.3681
▁ruptura	-11.3682
abi	-11.3686
▁facilidad	-11.3692
▁song	-11.3698
▁pseudo	-11.3698
▁stephen	-11.3698
▁previsto	-11.3698
▁encargada	-11.3702
▁compensa	-11.3704
▁navarro	-11.3704
bund	-11.3706
▁atraviesa	-11.3709
▁guzmán	-11.3709
▁delegación	-11.371
▁constituy	-11.3713
▁poblada	-11.3715
haberse	-11.3716
▁fifa	-11.3718
▁oral	-11.3719
▁disolución	-11.3721
▁borra	-11.3721
▁grabada	-11.3729
▁gay	-11.3729
▁alinea	-11.3732
▁predominante	-11.3737
▁horario	-11.3738
▁plantilla	-11.375
▁iron	-11.3753
dua	-11.3753
▁mantenía	-11.3754
▁apoyado	-11.3755
▁costarricense	-11.376
▁google	-11.376
pm	-11.3762
▁móvil	-11.3765
▁novia	-11.3767
▁alguno	-11.3767
jera	-11.3768
▁bombardeo	-11.3769
▁vivía	-11.377
▁disminución	-11.3771
▁legislación	-11.3771
▁chip	-11.3772
▁liderado	-11.3775
▁comer	-11.3779
▁conducta	-11.3779
▁1898	-11.3779
haw	-11.378
itis	-11.3781
▁especula	-11.3782
▁cortés	-11.3783
▁lujo	-11.3785
gha	-11.3787
▁embajada	-11.3788
▁venezolana	-11.3788
▁censura	-11.3788
▁levantamiento	-11.3793
3.6	-11.3794
▁boda	-11.3794
▁legales	-11.3797
▁puntuación	-11.3799
▁sencilla	-11.3799
-12	-11.3804
▁dolores	-11.3804
▁llamaba	-11.3807
▁dorado	-11.381
▁usaba	-11.3816
▁represión	-11.3821
▁nube	-11.3822
▁facilitar	-11.3825
▁consecutiva	-11.3828
▁cubano	-11.3831
▁renunci	-11.3836
▁diploma	-11.3839
▁túnel	-11.3839
▁meseta	-11.384
▁utilizaba	-11.3843
▁localizada	-11.3845
▁romance	-11.3846
▁extraño	-11.3851
▁colombiana	-11.3856
▁aprobada	-11.3862
▁amarilla	-11.3865
▁ciclismo	-11.3867
▁abuso	-11.3868
▁teja	-11.3873
▁tronco	-11.3881
▁ligera	-11.3887
redo	-11.3887
▁festivales	-11.389
▁escapa	-11.389
▁registr	-11.3898
▁privilegio	-11.3902
▁festividad	-11.3902
▁adoptó	-11.3904
énico	-11.3906
▁intelectuales	-11.3908
▁compositores	-11.3914
▁minera	-11.3918
▁cría	-11.3918
к	-11.3919
▁víctima	-11.3923
▁goleador	-11.3925
▁ramos	-11.3927
▁avanzada	-11.3933
orillas	-11.3935
▁venera	-11.3935
▁cristina	-11.3936
▁parámetro	-11.3942
▁extenso	-11.3942
00.000	-11.3947
▁estimula	-11.3947
▁inclinación	-11.3952
▁masculina	-11.3953
▁concilio	-11.3953
▁1901	-11.3957
vy	-11.3957
▁silvestre	-11.3959
▁pecho	-11.3963
▁instrucciones	-11.3965
▁conocía	-11.3967
▁presentaron	-11.3968
▁magdalena	-11.397
3,7	-11.3973
▁indio	-11.3974
▁cobertura	-11.3976
▁tenemos	-11.3976
françois	-11.3982
▁juárez	-11.3982
▁psoe	-11.3982
▁robot	-11.3983
▁sugiri	-11.3983
▁bern	-11.3983
bei	-11.3989
dillo	-11.3994
0,000	-11.3995
▁aparecido	-11.3995
sexual	-11.3999
▁society	-11.3999
▁gótico	-11.4002
▁apóstol	-11.4005
▁indonesia	-11.4005
▁diosa	-11.4006
▁hostil	-11.4006
▁sucedido	-11.4011
▁from	-11.4013
▁doña	-11.4016
▁vargas	-11.4018
tive	-11.4021
▁leones	-11.4022
▁declarada	-11.4024
▁fallo	-11.4026
▁estratégica	-11.4028
▁gradual	-11.4028
▁ibn	-11.4028
▁fusiona	-11.4032
▁desemboca	-11.4033
▁conclusión	-11.4034
eligió	-11.4035
▁urbaniza	-11.4035
▁formalmente	-11.4041
▁destacando	-11.4042
▁especialidad	-11.4042
▁hogares	-11.4054
▁instrucción	-11.4057
▁hamilton	-11.4057
hem	-11.4057
▁presidenciales	-11.4058
icular	-11.4058
▁espejo	-11.4064
▁escuchar	-11.4067
▁cátedra	-11.4069
3.8	-11.4072
▁opuesto	-11.4072
▁extinción	-11.4075
▁adop	-11.408
▁caudal	-11.4081
▁municipalidad	-11.4089
▁ochenta	-11.4092
▁piensa	-11.4099
▁habana	-11.4102
▁impidi	-11.4105
▁bravo	-11.4105
▁francis	-11.4107
▁manzana	-11.411
▁profesión	-11.4121
▁alcaldía	-11.4121
▁aparecieron	-11.4121
▁iluminación	-11.4125
▁continuidad	-11.4127
▁hetero	-11.4131
▁coordina	-11.4131
▁intencion	-11.4132
ibi	-11.4132
▁brasileña	-11.4135
▁trazado	-11.4143
▁modificaciones	-11.4145
▁ratific	-11.4146
▁mantenido	-11.415
▁múnich	-11.415
▁opositor	-11.415
chal	-11.4152
▁vigente	-11.4157
space	-11.4161
ved	-11.4169
ísmo	-11.417
▁fire	-11.4171
▁inteligente	-11.418
▁yucatán	-11.418
vira	-11.4181
▁dejaron	-11.4181
▁plana	-11.4182
▁explosión	-11.4191
▁pobladores	-11.4192
▁1897	-11.4195
▁licenciatura	-11.4195
▁sudeste	-11.4198
▁precisa	-11.4198
▁espalda	-11.4199
try	-11.4201
▁bulgaria	-11.4203
▁rescate	-11.4205
▁traslado	-11.4208
▁soluciones	-11.4209
▁radica	-11.4211
▁caliente	-11.4214
▁huye	-11.4218
▁silla	-11.422
▁youtube	-11.4221
▁emprendi	-11.4221
▁bola	-11.4222
▁recuper	-11.4223
3.7	-11.4224
▁esperar	-11.4225
▁sabía	-11.4227
garra	-11.4229
▁ajusta	-11.4229
▁dieta	-11.4229
▁visitó	-11.4233
▁palestina	-11.4233
▁activista	-11.4233
▁digitales	-11.4234
fito	-11.4236
beth	-11.4238
▁jurídico	-11.4239
▁tesoro	-11.4239
▁progresiva	-11.424
▁pintores	-11.424
▁tributo	-11.4241
▁paraná	-11.4246
▁clay	-11.4251
▁trasladar	-11.4273
л	-11.4274
▁medellín	-11.4274
▁encontramos	-11.4274
hid	-11.4277
▁toronto	-11.4281
5,5	-11.4289
▁bart	-11.429
▁0.03	-11.4292
▁prototipo	-11.4292
▁serpiente	-11.4298
▁alicante	-11.4298
▁cerrar	-11.4302
▁distinción	-11.4304
ptica	-11.4307
▁configuración	-11.431
▁secundario	-11.4317
▁clinton	-11.4322
▁monstruo	-11.4322
▁suárez	-11.4328
▁valde	-11.4337
▁abad	-11.4339
guin	-11.434
▁combinado	-11.4341
▁roque	-11.4341
▁submarino	-11.4346
▁arbitr	-11.4348
▁america	-11.4351
▁homónimo	-11.4352
▁monitor	-11.4353
▁circula	-11.4356
▁adquisición	-11.4357
▁inscripción	-11.4357
▁malvinas	-11.4363
▁compiti	-11.4367
▁dientes	-11.437
▁garden	-11.4371
▁administrador	-11.4372
▁estabilidad	-11.4374
hawk	-11.4379
ional	-11.438
▁etiqueta	-11.4381
▁trigo	-11.4387
▁huracán	-11.4387
▁comproba	-11.4389
▁trofeo	-11.4393
▁alaska	-11.44
barre	-11.4401
▁font	-11.4404
▁gravedad	-11.4407
▁favoreci	-11.4407
▁reemplazar	-11.4407
▁falsa	-11.4412
▁tropicales	-11.4413
▁inmigración	-11.4417
▁metropolitano	-11.4417
▁cohete	-11.4418
▁huerta	-11.4418
▁aceptado	-11.4422
▁conformado	-11.4423
▁sospecha	-11.4423
▁rechazo	-11.4423
▁reducida	-11.4424
▁soledad	-11.443
▁auge	-11.443
▁vencedor	-11.443
-14	-11.4432
▁vinculado	-11.4432
▁involucrado	-11.4432
▁degrada	-11.4433
▁historieta	-11.4436
▁adolfo	-11.4436
▁marion	-11.4438
▁rotación	-11.4442
▁dónde	-11.4445
▁intenso	-11.4448
▁cf	-11.4448
▁anualmente	-11.4459
▁marshall	-11.446
▁instalado	-11.4465
▁clari	-11.4466
▁mauricio	-11.4466
históricamente	-11.4467
▁adquirir	-11.447
▁distinguir	-11.4471
ë	-11.4472
▁nowiki	-11.4472
▁navío	-11.4472
firmaron	-11.4483
sfera	-11.4489
▁culpa	-11.4493
7,6	-11.4493
▁afectada	-11.4497
▁herramienta	-11.4501
▁módulo	-11.4502
▁civilización	-11.4507
▁sufrido	-11.4509
▁intervin	-11.4515
▁automóviles	-11.4519
▁acredita	-11.452
▁respeto	-11.452
▁asumir	-11.4521
▁sexuales	-11.4526
▁eficiente	-11.4526
▁entregó	-11.4535
▁conservatorio	-11.4536
▁onu	-11.4538
λ	-11.4538
▁juveniles	-11.4543
▁iniciales	-11.4546
▁impresión	-11.4552
ş	-11.4557
▁matriz	-11.4557
▁automóvil	-11.457
▁permitido	-11.4572
▁ciudadano	-11.4574
▁paloma	-11.4575
▁cuento	-11.4576
▁sometido	-11.4576
▁gratuita	-11.4587
▁mezquita	-11.4587
▁concesión	-11.4588
▁dramática	-11.4588
▁cesar	-11.4589
stock	-11.4592
▁miranda	-11.4594
▁dependiente	-11.4598
▁minero	-11.4599
▁proximidad	-11.46
▁autobuses	-11.46
▁hebreo	-11.46
▁lyon	-11.4601
▁policial	-11.4602
revolucionaria	-11.4605
▁destruye	-11.4606
▁apolo	-11.4609
▁vigor	-11.4615
▁marcel	-11.4617
▁samuel	-11.4626
▁escondi	-11.4634
▁contribuyó	-11.4636
▁catorce	-11.4636
▁introducido	-11.4637
▁simultáneamente	-11.464
3,8	-11.4642
▁patrones	-11.4643
▁incursion	-11.4649
▁procesión	-11.4655
▁teórico	-11.4655
▁señorío	-11.4655
▁estudiantil	-11.4661
▁lisboa	-11.4661
tepec	-11.4662
▁cerebral	-11.4667
invest	-11.4668
4,2	-11.4668
wing	-11.4671
▁hallazgo	-11.4673
▁pierna	-11.4674
ingham	-11.4677
▁extremada	-11.4679
▁evaluación	-11.4681
▁emite	-11.4685
▁shu	-11.4688
▁1860	-11.4688
▁coordinador	-11.4689
▁permanecie	-11.469
▁ladrillo	-11.4692
▁robo	-11.4694
▁esfera	-11.4698
▁marítimo	-11.4698
▁obje	-11.4698
▁interrumpi	-11.4704
▁consciente	-11.4706
▁cofradía	-11.471
▁presidenta	-11.471
▁soberano	-11.471
▁arbusto	-11.471
▁personalidades	-11.4713
▁1868	-11.4716
▁proporción	-11.4717
▁tránsito	-11.4723
▁huir	-11.4723
▁fantasma	-11.4723
▁cabal	-11.4724
▁probar	-11.4725
▁rota	-11.4726
▁combatir	-11.4733
▁muñoz	-11.4735
▁eliminatoria	-11.4736
6,5	-11.4737
ambu	-11.474
▁cruzada	-11.4741
▁perteneció	-11.4741
▁camiseta	-11.4741
▁convertiría	-11.4742
▁discográfico	-11.4745
▁bush	-11.4747
▁bbc	-11.4748
▁dark	-11.4749
▁steven	-11.475
▁aerolínea	-11.4754
▁plástico	-11.4754
▁spider	-11.4754
▁anton	-11.4755
4,3	-11.4756
▁finalidad	-11.4758
▁mongol	-11.4758
▁australiano	-11.4762
▁retoma	-11.4766
▁faro	-11.4769
▁maxim	-11.4769
▁observ	-11.477
▁bombarde	-11.477
▁jacques	-11.4773
▁sintetiza	-11.4773
▁cartagena	-11.4773
▁deposita	-11.4775
▁exploración	-11.4775
▁buck	-11.4775
▁venía	-11.4775
▁traducido	-11.4779
▁potente	-11.4779
▁interesa	-11.4783
▁sicilia	-11.4784
ε	-11.4785
▁elaborado	-11.4789
dru	-11.4789
▁magia	-11.4789
▁costumbre	-11.479
▁nasa	-11.4792
▁defensores	-11.4793
▁generaciones	-11.4797
▁maestría	-11.4798
▁nosotros	-11.4798
▁luisiana	-11.4803
▁oliva	-11.4804
▁sentir	-11.4808
▁montana	-11.4809
▁cadáver	-11.481
▁carnaval	-11.481
▁monroe	-11.481
▁marvel	-11.4812
▁ganadora	-11.4812
3,9	-11.4815
▁endémica	-11.4816
▁destruida	-11.4817
▁ejecutar	-11.4818
▁sound	-11.4821
▁respectivo	-11.4823
▁nominado	-11.4825
▁howard	-11.4825
▁nick	-11.4829
▁observaciones	-11.4834
▁impuesto	-11.4835
▁pasto	-11.4841
▁cortometraje	-11.4841
▁setenta	-11.4845
▁vivían	-11.4847
κ	-11.4848
▁discusión	-11.4848
▁vecino	-11.485
▁polvo	-11.4851
▁síndrome	-11.486
▁melodía	-11.486
▁tokio	-11.486
ífero	-11.4861
▁folk	-11.4864
▁mariscal	-11.4867
▁moore	-11.4867
▁salario	-11.487
▁tenerife	-11.4873
▁inauguración	-11.4878
▁asunto	-11.488
▁moviliza	-11.488
▁wrestling	-11.4885
σ	-11.4885
▁certificado	-11.489
4,7	-11.4892
▁virrey	-11.4892
8,5	-11.4892
▁añade	-11.4893
▁largometraje	-11.4898
▁obrera	-11.4899
▁tela	-11.4899
▁lunes	-11.4902
▁élite	-11.4902
▁dorsal	-11.4902
▁bang	-11.4908
▁goza	-11.4912
▁centenario	-11.4912
▁soria	-11.4914
▁superficial	-11.4917
▁moro	-11.4918
▁abadía	-11.4918
▁jamás	-11.4923
▁sensible	-11.4923
▁informática	-11.4924
ificó	-11.4928
т	-11.493
▁emitida	-11.493
▁tuviera	-11.493
▁representaba	-11.4931
▁ortiz	-11.4937
4,8	-11.4941
▁nombrar	-11.4942
▁wayne	-11.4945
▁schu	-11.4947
▁inflorescencia	-11.4955
▁roll	-11.4956
▁prince	-11.496
▁precedente	-11.4961
▁estricta	-11.4961
▁ranking	-11.4962
▁reglamento	-11.4963
▁pib	-11.4963
▁cantera	-11.4966
▁venció	-11.4967
▁créditos	-11.4968
▁emisiones	-11.4968
▁1899	-11.4972
▁finca	-11.4973
▁association	-11.4974
▁galaxia	-11.4974
▁infante	-11.4975
▁desastre	-11.4976
▁convenio	-11.4976
▁marcelo	-11.4978
▁latitud	-11.4986
▁visitante	-11.499
▁agujero	-11.4993
▁poderosa	-11.4995
▁buscaba	-11.4996
▁norteamérica	-11.4999
▁criatura	-11.4999
fracción	-11.5
▁liberty	-11.5002
▁mou	-11.5006
▁armenia	-11.5006
europe	-11.501
fruct	-11.5011
▁desempeño	-11.5012
boro	-11.5013
▁soy	-11.5015
▁rehabilit	-11.5019
▁triunfa	-11.5019
▁leonardo	-11.5019
▁prominente	-11.5019
▁asistir	-11.5019
▁intra	-11.502
▁gastronomía	-11.5025
▁proyección	-11.5025
▁ejerce	-11.5025
▁medir	-11.503
ê	-11.5031
▁cubrir	-11.5033
▁guan	-11.5034
▁falso	-11.5034
▁heart	-11.5041
.500	-11.5047
▁antártida	-11.5051
▁claudio	-11.5051
▁precursor	-11.5051
▁asegur	-11.5054
▁refugi	-11.5054
▁narrativa	-11.5067
▁anglo	-11.5073
▁fundi	-11.5077
▁tecnológica	-11.5083
▁realizaba	-11.5083
▁nevada	-11.5083
▁playstation	-11.5089
▁excepcional	-11.5091
▁basil	-11.5093
▁sorpresa	-11.5096
▁comercializa	-11.5098
▁chávez	-11.5102
▁manteniendo	-11.5102
▁unieron	-11.5105
▁aplicada	-11.5113
▁atlanta	-11.5115
▁pantano	-11.5115
▁nelson	-11.5121
▁friedrich	-11.5121
tang	-11.5123
▁plasma	-11.513
▁aceptación	-11.5131
▁desconoce	-11.5134
▁patriot	-11.5138
cordó	-11.514
▁textil	-11.5141
▁relativo	-11.515
▁cabrera	-11.5154
zzi	-11.5155
▁madura	-11.5156
▁1895	-11.5158
▁rectangular	-11.516
▁asedio	-11.5168
▁ayudante	-11.5172
illi	-11.5173
▁racing	-11.5187
▁vegetales	-11.5188
▁renovació	-11.5192
▁carlista	-11.5193
▁encargo	-11.5193
▁incorporación	-11.5195
hai	-11.5197
▁1889	-11.5198
▁reich	-11.5207
▁juzgado	-11.5212
▁aprender	-11.5219
▁maniobra	-11.5219
▁0.04	-11.5219
▁lind	-11.5221
lance	-11.5228
pg	-11.5229
wel	-11.523
▁perry	-11.5231
▁constantinopla	-11.5232
▁anderson	-11.5234
▁supuestamente	-11.524
▁cabildo	-11.5245
▁étnico	-11.5251
▁linux	-11.5252
▁pedido	-11.5263
▁encabezado	-11.5263
▁propaganda	-11.5264
▁acuña	-11.5265
▁exclusiva	-11.5267
▁alimento	-11.5268
wie	-11.527
▁alfabeto	-11.5271
▁promesa	-11.5271
bey	-11.5272
▁austral	-11.5275
▁impact	-11.5276
▁road	-11.5278
▁frontal	-11.5283
▁llanura	-11.5284
▁anunciado	-11.5289
gula	-11.529
▁canciller	-11.5291
▁utilidad	-11.5291
▁arist	-11.5291
▁dream	-11.5292
▁newton	-11.5292
▁mutua	-11.5295
▁móviles	-11.5298
▁emocional	-11.53
▁limpia	-11.5304
áceo	-11.5307
▁descubierta	-11.531
▁perón	-11.5312
▁repertorio	-11.5317
▁numera	-11.5317
▁elizabeth	-11.5323
▁pájaro	-11.5323
5,6	-11.5324
▁sajonia	-11.533
▁josep	-11.5331
cogió	-11.5332
▁triángulo	-11.5334
▁bartolomé	-11.5337
tienden	-11.534
▁molino	-11.5346
▁pedir	-11.5348
▁deportista	-11.5355
▁comunicado	-11.5357
▁tapa	-11.5362
▁predomina	-11.5363
▁constituido	-11.537
▁contaminación	-11.537
▁nápoles	-11.537
luca	-11.537
hul	-11.5371
4,4	-11.5371
▁turistas	-11.5372
embri	-11.5372
▁plantel	-11.5376
▁deberá	-11.538
▁calificación	-11.5382
▁transmitir	-11.5383
▁linda	-11.5386
▁reproduci	-11.5396
ponerse	-11.54
▁gracia	-11.5403
▁consecutivo	-11.5403
formaciones	-11.5403
▁radia	-11.5403
▁instrumental	-11.5409
▁mármol	-11.5409
▁violenta	-11.5409
▁corporal	-11.5409
▁emma	-11.5414
▁ecosistema	-11.5416
▁estelar	-11.5418
▁minería	-11.5419
▁variada	-11.5419
▁hidr	-11.542
5,2	-11.542
▁escándalo	-11.5423
▁sistemática	-11.5423
▁nintendo	-11.5423
▁cautiv	-11.5429
▁literalmente	-11.5429
▁adjudic	-11.5436
▁bloqueo	-11.5447
sistió	-11.5451
900	-11.5453
▁reemplazo	-11.5456
▁cilindro	-11.5456
▁televisiva	-11.5456
▁pío	-11.5458
0,5	-11.546
▁fluvial	-11.5463
▁cambridge	-11.5463
▁avanzado	-11.5465
▁voleibol	-11.5469
▁opciones	-11.5474
▁1871	-11.5474
▁ballet	-11.5477
refugiados	-11.5477
▁alexandr	-11.5487
▁adaptar	-11.549
▁demonio	-11.5496
▁reputación	-11.5496
▁interesado	-11.5501
▁lento	-11.5504
▁teclado	-11.5504
prime	-11.5506
▁helicóptero	-11.551
▁promulga	-11.5511
alco	-11.552
▁integrante	-11.552
▁entretenimiento	-11.5523
▁participando	-11.5524
▁pelota	-11.5525
▁kid	-11.5526
▁cava	-11.5528
▁1891	-11.553
grana	-11.5531
correspondientes	-11.5535
▁musulmana	-11.5543
señó	-11.5547
▁anciano	-11.5548
▁prairie	-11.555
5,3	-11.5555
▁podido	-11.5557
▁cabello	-11.5566
bird	-11.5567
▁humedad	-11.557
▁recibiendo	-11.557
▁desafío	-11.557
▁masacre	-11.5572
▁championship	-11.5577
▁vertiente	-11.5577
4,1	-11.5583
▁multiplica	-11.5584
▁misionero	-11.5584
▁expuesto	-11.5587
▁óptica	-11.5596
▁kennedy	-11.5597
▁similitud	-11.5597
▁jueces	-11.5597
▁conservadores	-11.5599
▁diputación	-11.5604
2.000	-11.5605
▁evangeli	-11.5608
▁1896	-11.5608
▁mtv	-11.5611
▁acompañada	-11.5619
▁justin	-11.562
▁adrian	-11.5622
▁java	-11.5625
▁mostraba	-11.5625
▁imparti	-11.5626
▁oliver	-11.5628
▁yugoslavia	-11.5631
▁primitivo	-11.5638
▁camil	-11.5642
▁milenio	-11.5645
▁serrano	-11.5647
▁redacció	-11.5649
▁1888	-11.5651
▁restringi	-11.5651
▁variación	-11.5664
▁acorde	-11.5673
▁secretaria	-11.5675
▁confirmado	-11.5684
▁julie	-11.5685
▁opiniones	-11.5686
▁alfred	-11.5686
▁tocó	-11.5687
▁ocean	-11.5689
▁recurso	-11.569
▁registrada	-11.5697
▁challenge	-11.5699
ítica	-11.5701
3.9	-11.5701
▁pariente	-11.5703
thing	-11.5704
▁coordinación	-11.5707
▁documentación	-11.5713
▁libertadores	-11.5718
▁aislado	-11.5727
▁predecesor	-11.5733
ífera	-11.5741
▁dance	-11.575
1.000	-11.5753
▁introducir	-11.5755
▁masivo	-11.5758
▁inclina	-11.576
▁reorganiza	-11.5762
▁brit	-11.5765
presiones	-11.5768
▁apare	-11.5768
▁desembocadura	-11.5768
dino	-11.577
▁favorito	-11.5772
4,6	-11.5772
6,7	-11.5774
militar	-11.5776
▁abandono	-11.5782
▁imposi	-11.5785
▁adaptado	-11.5789
▁legión	-11.579
▁mediano	-11.5794
▁giovanni	-11.5795
▁pabellón	-11.5795
ologi	-11.5799
eiro	-11.5806
▁cuida	-11.5806
ómetro	-11.5808
▁traza	-11.5808
▁décimo	-11.5809
wai	-11.5813
▁lenin	-11.5814
▁presentaba	-11.5815
▁nocturno	-11.5816
▁diablo	-11.5823
▁mostrado	-11.5824
▁comenzand	-11.5824
▁preparado	-11.5828
▁explic	-11.583
▁desconocida	-11.583
▁regalo	-11.5833
▁procesador	-11.5836
▁centímetros	-11.5837
▁ostenta	-11.5838
▁arroz	-11.5847
▁1884	-11.5848
▁fármaco	-11.5851
▁vigilancia	-11.5851
▁procesamiento	-11.5865
▁colonización	-11.5867
▁ornamenta	-11.5872
▁codifica	-11.5873
▁hardware	-11.5879
▁raya	-11.588
▁guayaquil	-11.5886
ché	-11.5902
▁progresista	-11.5903
▁cinematográfico	-11.5918
▁rodolfo	-11.592
▁sustenta	-11.5926
▁ávila	-11.5927
▁agota	-11.5928
ésimo	-11.5928
▁definitivo	-11.5931
▁1865	-11.5931
▁nervioso	-11.5934
▁contribución	-11.5935
▁kilo	-11.5938
▁ambienta	-11.5939
▁ascendencia	-11.5941
▁sagrada	-11.5942
▁pez	-11.5943
5,7	-11.5948
▁florencia	-11.5948
▁anarquista	-11.5948
▁innovación	-11.5948
▁regulación	-11.5949
▁divulg	-11.5956
7,7	-11.5961
▁flash	-11.597
▁jerónimo	-11.5977
å	-11.5991
▁lawrence	-11.5991
▁vacuna	-11.5991
▁ofrecie	-11.5991
▁extendido	-11.5993
▁establecie	-11.5993
eye	-11.5994
▁perdida	-11.5996
▁colocado	-11.6001
▁circun	-11.6005
▁veterano	-11.6005
6,2	-11.6011
▁evacua	-11.6019
▁edific	-11.6023
▁urss	-11.6025
▁obtuvieron	-11.6026
▁cerveza	-11.6026
▁surgieron	-11.6026
▁veía	-11.6034
▁turística	-11.6035
▁1867	-11.6045
▁accede	-11.6052
▁coruña	-11.6054
▁1848	-11.6057
▁distinto	-11.6059
▁mantuvieron	-11.6061
▁adoptado	-11.6063
▁examina	-11.6068
ásico	-11.607
▁garantizar	-11.6075
▁peculiar	-11.6075
5,4	-11.6077
▁clasificó	-11.6083
▁diamante	-11.6083
▁integr	-11.6084
▁solicitud	-11.6092
▁explorador	-11.6094
▁posiciona	-11.6096
clair	-11.6096
▁mount	-11.6099
▁1881	-11.61
▁warner	-11.6101
▁adquiere	-11.6104
▁centenar	-11.6104
▁alcalá	-11.6104
▁radial	-11.6106
▁awards	-11.6109
▁asiático	-11.6111
▁descanso	-11.6111
▁dimensión	-11.6118
▁suspensión	-11.6118
▁prior	-11.612
▁maryland	-11.6122
▁transcurso	-11.6125
▁distribuida	-11.6125
▁liceo	-11.6128
▁valer	-11.6132
7,2	-11.6134
plasm	-11.6135
▁luchador	-11.6137
▁aboga	-11.6137
▁gibraltar	-11.614
▁venganza	-11.614
▁vuelto	-11.614
▁suprimi	-11.614
▁ecuaciones	-11.6147
▁arqueológica	-11.6147
▁bautiz	-11.6152
▁músculo	-11.6154
▁gesta	-11.6154
▁moderado	-11.6154
▁lesiones	-11.6159
▁cerró	-11.6166
▁cumplimiento	-11.6168
▁galardonado	-11.6168
▁exclusivo	-11.6175
▁adelanta	-11.6175
▁debilita	-11.6177
▁manifestación	-11.618
▁asume	-11.6182
▁tortuga	-11.6183
vivieron	-11.6188
▁catedrático	-11.6197
▁1850	-11.6203
▁distinta	-11.6205
▁1879	-11.6207
▁descendencia	-11.6211
▁ilustre	-11.6211
▁vizcaya	-11.6211
▁finlandia	-11.6211
▁ocasionalmente	-11.6211
7,3	-11.6212
▁investigar	-11.6212
▁lámina	-11.6212
▁calam	-11.6218
▁cráneo	-11.6218
▁garantiza	-11.6219
▁vendida	-11.6223
6,6	-11.6224
▁montaje	-11.6224
▁biológico	-11.6229
▁1892	-11.6231
▁énfasis	-11.6233
▁desigual	-11.6233
▁moderniza	-11.6236
4,9	-11.6237
▁math	-11.6237
▁recorri	-11.6238
▁franquista	-11.624
▁trujillo	-11.624
▁contribuciones	-11.624
▁religiones	-11.6247
▁jersey	-11.6247
▁four	-11.6251
▁ciudadanía	-11.6255
▁considerarse	-11.6255
▁resalta	-11.6256
▁direcciones	-11.6262
▁fraile	-11.6262
▁extraordinaria	-11.6269
▁kw	-11.6275
▁cometido	-11.6278
▁pega	-11.6281
▁intercambia	-11.6283
▁guarni	-11.6284
▁comenzado	-11.6291
▁semejante	-11.6291
▁0.05	-11.6291
▁helio	-11.6294
▁london	-11.6296
▁chart	-11.6297
▁valparaíso	-11.6298
modificación	-11.63
▁colga	-11.6303
▁custodia	-11.6305
▁pensilvania	-11.6305
6,4	-11.6306
treme	-11.6306
▁sobrevivir	-11.6313
▁atp	-11.6314
7,9	-11.6315
▁rompe	-11.6317
▁fomento	-11.6318
▁reivindica	-11.632
▁dividir	-11.6321
▁1864	-11.6322
▁iván	-11.6323
glia	-11.634
▁modificado	-11.6343
▁representativo	-11.6344
▁convocatoria	-11.6349
▁septentrional	-11.6349
▁marchó	-11.6349
▁genético	-11.635
▁candidata	-11.6356
▁tambor	-11.6357
▁compite	-11.6361
▁húngaro	-11.6364
8,2	-11.6364
▁1863	-11.6368
▁preferencia	-11.6371
▁suministra	-11.6371
8,3	-11.6373
▁condiciona	-11.6373
▁extender	-11.6378
basket	-11.6378
hō	-11.6379
▁montañosa	-11.6385
▁1894	-11.639
▁1886	-11.639
8,7	-11.639
▁celta	-11.6391
▁extraña	-11.6397
6,9	-11.6397
▁emitir	-11.6399
▁detalle	-11.64
▁reconquista	-11.64
▁expresiones	-11.6406
▁maza	-11.6409
▁producie	-11.641
▁eficaz	-11.6415
▁glaciar	-11.6415
▁gijón	-11.6416
▁wu	-11.6419
▁televisivo	-11.6422
▁recurri	-11.6422
▁hueco	-11.6423
▁observador	-11.6423
▁sentía	-11.6429
6,3	-11.6432
▁forest	-11.6434
8,4	-11.6442
▁triste	-11.6444
7,4	-11.6449
urri	-11.645
▁enlaza	-11.6451
▁valenciano	-11.6451
cott	-11.6457
▁norteamericana	-11.6457
5,1	-11.6457
▁supervivencia	-11.6459
▁llegaba	-11.6466
nsación	-11.6468
▁percibi	-11.6474
▁emprende	-11.6474
▁vegetal	-11.6475
▁niega	-11.6479
▁jeff	-11.6484
▁despleg	-11.6485
▁viña	-11.6487
ل	-11.6489
▁desapareció	-11.6489
▁crímenes	-11.6496
▁reacciona	-11.6503
▁islandia	-11.6508
▁ganancia	-11.6512
▁that	-11.6512
▁arrestado	-11.6518
▁gerente	-11.652
▁arroja	-11.6521
▁anthony	-11.6526
▁marítima	-11.6526
▁teórica	-11.6533
▁luces	-11.6534
▁bienestar	-11.6539
▁1821	-11.654
▁transmite	-11.6541
▁team	-11.6543
nzaron	-11.6545
▁periódica	-11.6548
▁compatible	-11.6548
▁atleta	-11.6549
sistieron	-11.6553
▁andré	-11.6554
▁cálido	-11.6555
▁patriarca	-11.6556
▁dispar	-11.6561
▁metálico	-11.6563
▁recurrente	-11.6563
▁houston	-11.6563
7,8	-11.6573
▁turno	-11.6577
▁umbral	-11.6578
▁fru	-11.6578
▁estuviera	-11.6585
▁fotógrafo	-11.6585
▁fantasía	-11.6586
▁dallas	-11.6589
▁estratégico	-11.6593
▁grueso	-11.6593
▁impus	-11.6596
▁videoclip	-11.66
▁russell	-11.66
▁necesitaba	-11.6604
▁hell	-11.6607
▁economista	-11.6608
▁califa	-11.6615
▁aterrizaje	-11.6615
▁percepción	-11.6615
▁mercurio	-11.6623
▁anula	-11.6631
hú	-11.6633
▁1876	-11.6636
▁corporation	-11.6638
▁country	-11.6638
▁pleasant	-11.6638
▁intervalo	-11.6638
▁cuál	-11.664
▁foco	-11.6643
▁calific	-11.6644
génesis	-11.6645
▁episcopal	-11.6645
▁inusual	-11.6645
▁1857	-11.665
▁funcion	-11.6655
▁adorna	-11.6658
▁calderón	-11.666
mendi	-11.6662
▁filip	-11.6666
▁precipitaciones	-11.6668
▁resultante	-11.6668
▁tumor	-11.667
▁celda	-11.6671
▁christi	-11.6675
▁1830	-11.668
▁1840	-11.6683
▁kevin	-11.6687
▁dirigie	-11.669
▁eurovisión	-11.6691
▁concede	-11.6694
▁great	-11.6695
▁pensaba	-11.6697
▁motocicleta	-11.6698
▁arabia	-11.67
▁1873	-11.67
▁edgar	-11.6703
8,6	-11.671
5,9	-11.6713
▁0.06	-11.6713
▁cook	-11.6713
▁network	-11.6721
▁manchester	-11.6722
▁transferido	-11.6728
▁promedió	-11.6736
▁exceso	-11.6736
▁impedir	-11.6737
lich	-11.6737
▁pecado	-11.6739
▁1885	-11.6743
▁extremadura	-11.6744
▁voca	-11.6744
▁vigila	-11.6746
▁1887	-11.6748
0,4	-11.6755
▁venus	-11.6757
▁doméstico	-11.6758
▁castellana	-11.6759
▁recolect	-11.6766
▁platino	-11.6768
▁favorece	-11.6769
▁rivalidad	-11.677
ástico	-11.6772
▁tucumán	-11.6774
▁finanzas	-11.6774
kawa	-11.6774
▁nicola	-11.6775
9,2	-11.6778
▁feliz	-11.6778
cillo	-11.6781
▁vanguardia	-11.6781
9,5	-11.6784
▁galard	-11.6785
▁conquistador	-11.6788
▁ilustrado	-11.6791
▁quebrada	-11.6791
▁varsovia	-11.6797
▁sorprendi	-11.6797
▁monterrey	-11.6797
▁whi	-11.6798
▁1883	-11.68
notación	-11.68
▁votar	-11.68
▁moli	-11.6802
▁morfología	-11.6804
▁abundancia	-11.6804
▁octava	-11.6804
▁basándo	-11.6811
▁silver	-11.6812
▁materna	-11.6812
hechas	-11.6817
▁1874	-11.6818
▁complejidad	-11.682
▁intendente	-11.682
▁primitiva	-11.682
▁1882	-11.6823
▁1866	-11.6825
▁ancha	-11.683
mayoritariamente	-11.6842
▁hampshire	-11.6842
▁bajista	-11.6842
▁mártir	-11.685
▁isidro	-11.685
riedad	-11.6854
▁1-0	-11.6862
▁consultor	-11.6864
▁bebé	-11.6864
▁mueve	-11.6865
▁rumore	-11.6872
▁escribiendo	-11.6873
▁conexiones	-11.6881
▁frei	-11.6881
▁innovador	-11.6882
▁promotor	-11.6883
▁holanda	-11.6883
▁certifica	-11.6884
▁1893	-11.6886
▁cónsul	-11.6889
▁argelia	-11.6891
▁armamento	-11.6891
▁suplente	-11.6897
▁gian	-11.6899
sionista	-11.6903
▁autónomo	-11.6904
▁centroamérica	-11.6904
vascular	-11.6904
▁diagrama	-11.6905
▁astrónomo	-11.6912
▁descansa	-11.6912
▁rolling	-11.6915
▁propuls	-11.6923
▁exige	-11.6924
version	-11.6924
▁hockey	-11.6927
▁violín	-11.6927
▁benedict	-11.6927
ucci	-11.6931
▁basal	-11.6931
▁bárbara	-11.6935
▁eficiencia	-11.6935
▁respectiva	-11.694
▁genoma	-11.6943
▁expresidente	-11.6943
▁mágico	-11.6943
▁pianista	-11.6943
▁frustra	-11.6943
fried	-11.6948
6,8	-11.6949
▁garantía	-11.695
▁encontrada	-11.6951
▁verifica	-11.6952
▁1869	-11.6954
▁fuji	-11.6955
5,8	-11.6964
▁exiliado	-11.6974
▁sujeta	-11.6974
▁ilumina	-11.6977
▁abraham	-11.6982
▁conversacion	-11.6982
▁bruce	-11.6983
ezca	-11.6988
ividad	-11.6989
▁inclusión	-11.699
▁decidir	-11.6991
introduc	-11.6995
▁infección	-11.6997
▁orbita	-11.7001
▁dinosaurio	-11.7005
▁sobreviviente	-11.7005
▁hiciera	-11.7005
▁conducido	-11.7006
▁encarcelado	-11.7008
▁inmediata	-11.701
▁severa	-11.7011
▁kre	-11.7012
▁gavi	-11.7014
▁semifinal	-11.7015
▁desfile	-11.7025
▁harris	-11.7027
▁cantabria	-11.7028
▁pamplona	-11.7028
▁ecología	-11.7031
▁whit	-11.7032
dimensional	-11.7036
▁aguilar	-11.7036
▁conducir	-11.7041
atacó	-11.7042
▁prefiere	-11.7052
▁decidido	-11.7052
▁peligroso	-11.7053
6,1	-11.7054
capacidades	-11.7057
force	-11.7059
▁antropología	-11.706
▁aparente	-11.706
▁demuestra	-11.7066
▁dramático	-11.7068
▁modula	-11.7069
▁oponente	-11.7076
▁eclesiástico	-11.7083
▁julián	-11.7083
▁inhibi	-11.7083
óloga	-11.7088
▁rally	-11.709
normales	-11.7093
▁codice	-11.7099
▁gilbert	-11.7099
▁croacia	-11.7107
▁recibía	-11.7107
ship	-11.7107
▁comics	-11.7115
▁isaac	-11.7115
▁detención	-11.7116
yev	-11.7122
π	-11.7122
▁clínico	-11.7122
▁sacrificio	-11.7122
▁térmica	-11.7122
▁interroga	-11.7123
▁limit	-11.7127
telecomunicacion	-11.713
▁topónimo	-11.713
▁1872	-11.7136
perdi	-11.7137
▁ortega	-11.7138
▁fabi	-11.7139
▁algodón	-11.714
0.11	-11.7143
▁geometría	-11.7146
▁séptima	-11.7146
▁simboliza	-11.7146
christ	-11.715
owski	-11.7153
▁compañera	-11.7154
▁wright	-11.7155
▁recompensa	-11.7162
▁educado	-11.7164
▁franz	-11.7166
ifolia	-11.7169
▁alumno	-11.7169
▁temor	-11.7169
▁climático	-11.717
skaya	-11.7175
▁audiovisual	-11.7178
▁ferrer	-11.718
▁georg	-11.7181
▁1861	-11.7191
▁1875	-11.7192
nunció	-11.7193
▁extraordinario	-11.7194
▁tranvía	-11.7194
▁dieciséis	-11.7201
▁accedi	-11.7202
▁caído	-11.7203
▁alegre	-11.7204
▁constituida	-11.7209
▁enviada	-11.7216
▁restricciones	-11.7217
▁teorema	-11.7217
▁intermedio	-11.7217
▁fracasa	-11.7218
▁conducción	-11.7218
▁regente	-11.7222
▁chiapas	-11.7226
▁invasor	-11.7226
▁correcto	-11.7232
▁duelo	-11.7233
▁proveedor	-11.7233
▁fundamento	-11.7237
▁filtra	-11.724
▁journal	-11.7249
▁equipamiento	-11.7257
▁ginebra	-11.7257
▁wilhelm	-11.7257
ò	-11.7265
▁sofía	-11.7265
▁mexica	-11.7266
▁choque	-11.7272
▁baterista	-11.7274
▁promete	-11.7276
▁warren	-11.7278
▁airlines	-11.7281
▁plumas	-11.7282
▁generó	-11.7283
▁pesada	-11.7286
▁toponimia	-11.7289
▁0.08	-11.7289
▁delimita	-11.729
▁equivale	-11.729
▁charlie	-11.7294
▁retorna	-11.7295
▁mallorca	-11.7297
▁ecuatoriano	-11.7305
▁dorada	-11.7306
▁aliado	-11.7312
▁belgrano	-11.7313
▁colega	-11.7318
▁stalin	-11.7321
▁cervantes	-11.7321
▁desespera	-11.7322
▁broadway	-11.7329
▁dispersa	-11.733
vre	-11.7332
pilares	-11.7336
▁preciso	-11.7338
▁golden	-11.7343
▁resistente	-11.7346
▁difiere	-11.7354
▁aclara	-11.7354
▁trío	-11.7354
▁mü	-11.7358
▁embarazo	-11.7362
▁extracción	-11.7368
▁fluido	-11.737
▁palestino	-11.737
▁andaluz	-11.737
apareciendo	-11.737
procesado	-11.7371
▁acoge	-11.7376
▁recibida	-11.7378
▁poética	-11.738
▁signific	-11.7381
▁afganistán	-11.7386
▁velasco	-11.7386
▁harvard	-11.7394
▁penitencia	-11.7394
▁subcampeón	-11.7394
▁obtención	-11.7394
positivas	-11.7395
5.5	-11.7399
ī	-11.7402
8,8	-11.7409
9,4	-11.7409
▁fragata	-11.741
▁palmer	-11.7415
▁manifiesta	-11.7418
8,1	-11.7425
▁borbón	-11.743
▁arrecife	-11.7435
▁athletic	-11.7435
▁renacentista	-11.7435
▁portugueses	-11.7443
▁jung	-11.7447
▁siquier	-11.7451
▁islámica	-11.7451
▁pirámide	-11.7451
▁luchó	-11.7451
æ	-11.7459
habit	-11.7461
fayette	-11.7467
transport	-11.7469
▁corral	-11.7474
▁orgullo	-11.7475
▁flecha	-11.7479
ghi	-11.748
▁concert	-11.7491
▁science	-11.7492
▁vitoria	-11.7493
▁estrada	-11.7495
yoshi	-11.7498
▁gimnasia	-11.75
▁1877	-11.7505
▁zamb	-11.7505
▁simplifica	-11.7508
▁plástica	-11.7508
▁muelle	-11.7511
▁equipado	-11.7516
▁hermosa	-11.7517
▁oración	-11.7517
▁pictures	-11.7524
▁consenso	-11.7525
▁cineasta	-11.7525
▁contener	-11.7526
▁adulto	-11.7539
▁celeste	-11.7541
▁ejecutiva	-11.7541
▁suicida	-11.7546
▁sustituir	-11.7549
▁cresta	-11.755
▁wol	-11.7556
▁descendiente	-11.7557
▁0.09	-11.7557
▁jueves	-11.7557
ófilo	-11.756
▁aislada	-11.7566
▁residi	-11.757
▁pontificia	-11.7574
▁nominada	-11.7575
▁balance	-11.7579
▁ibm	-11.758
▁merced	-11.7582
▁piratas	-11.7584
▁comprensión	-11.759
0,6	-11.7593
▁1820	-11.7599
▁polaca	-11.7606
▁recomienda	-11.7607
▁institute	-11.7608
▁lauren	-11.7612
▁reduj	-11.7617
▁infect	-11.7622
álisis	-11.7622
▁sudamericana	-11.7624
▁cronista	-11.7625
▁sabio	-11.7628
▁imprenta	-11.7632
▁preliminar	-11.764
▁divina	-11.7651
▁tragedia	-11.7657
▁pulgadas	-11.7657
▁terrible	-11.7657
▁colom	-11.7657
▁1812	-11.7661
▁vázquez	-11.7665
▁atletismo	-11.7673
▁filadelfia	-11.7682
▁prevención	-11.7682
▁orgánico	-11.7682
▁sultán	-11.7682
▁segovia	-11.7682
▁1856	-11.7688
▁inversiones	-11.769
8,9	-11.7694
▁obstáculo	-11.7698
▁chipre	-11.7704
▁oído	-11.7707
▁constructor	-11.7708
▁retrata	-11.7714
▁vacacion	-11.7718
ović	-11.7723
▁consiguiente	-11.7723
▁referéndum	-11.7723
▁escolta	-11.7724
,81	-11.7727
▁núñez	-11.7732
▁0.07	-11.7732
▁guerrilla	-11.7732
▁ficticio	-11.7749
▁surgido	-11.775
▁aprobar	-11.775
▁hormona	-11.775
▁honra	-11.7752
▁repetida	-11.7765
▁sufragio	-11.7774
▁anchura	-11.7782
▁intersec	-11.779
▁flamenco	-11.7791
▁examen	-11.7791
▁garganta	-11.7807
▁bruselas	-11.7816
9,3	-11.782
▁búlgaro	-11.7824
▁competidor	-11.7824
▁telescopio	-11.7824
▁cáceres	-11.7824
▁croata	-11.7826
▁ejemplar	-11.7829
▁heavy	-11.7833
▁mixto	-11.7842
▁dramaturgo	-11.785
▁superviviente	-11.785
▁plural	-11.785
zhou	-11.7852
▁condensa	-11.7857
▁convenciones	-11.7876
▁departamental	-11.7884
▁lealtad	-11.7884
▁resumen	-11.7884
▁afiliado	-11.789
▁excentricidad	-11.7892
▁ortodoxa	-11.7909
▁alerta	-11.7911
▁viajeros	-11.7912
▁euskera	-11.7918
▁debida	-11.7918
▁virreinato	-11.7926
▁hemisferio	-11.7935
▁obtenida	-11.7935
efectividad	-11.7935
▁walker	-11.7936
▁0.12	-11.7943
▁wwe	-11.7943
▁bolchevique	-11.7943
▁tardío	-11.7943
▁novedad	-11.7952
▁habilita	-11.7953
▁linaje	-11.7954
▁ramifica	-11.7954
▁telefónica	-11.7961
▁forzado	-11.7962
▁diseñar	-11.7965
▁mensual	-11.7969
▁draft	-11.797
0.18	-11.7976
▁dirigía	-11.7978
▁taiwán	-11.7978
ς	-11.7986
▁funeral	-11.7987
▁heredia	-11.7988
▁ryan	-11.7994
▁remata	-11.7995
▁violento	-11.8004
▁absorbe	-11.8021
▁culmin	-11.8026
▁herbácea	-11.8029
▁hubiese	-11.8029
▁aislamiento	-11.8038
▁horizonte	-11.8038
▁supervisa	-11.804
▁emilia	-11.8041
▁pacific	-11.8042
▁aliada	-11.8046
▁higgins	-11.8047
▁argel	-11.8047
wang	-11.8055
▁receptores	-11.8055
stadt	-11.8063
▁petersburgo	-11.8064
▁apartamento	-11.8073
▁nigeria	-11.8073
▁patrick	-11.8075
▁dodge	-11.8076
▁externo	-11.8082
▁delibera	-11.8083
▁spinetta	-11.809
▁denominó	-11.809
producción	-11.8093
▁libertador	-11.8094
▁macizo	-11.8101
▁campbell	-11.8107
▁esqueleto	-11.8107
▁traductor	-11.8107
▁middle	-11.8107
▁islote	-11.8108
▁devasta	-11.8114
▁christopher	-11.8116
▁armonía	-11.8116
▁predica	-11.8117
▁prisionero	-11.8118
▁agraria	-11.8126
▁aguda	-11.8126
▁inmueble	-11.8134
▁étnica	-11.8142
▁residuos	-11.8142
▁mostrando	-11.8142
▁producía	-11.8151
▁gang	-11.8152
social	-11.8168
▁introducida	-11.8171
▁culpable	-11.8173
▁seudónimo	-11.8177
▁sinfónica	-11.8195
▁salinas	-11.8195
▁supuesta	-11.8202
▁ofrecía	-11.8204
escasez	-11.8204
▁roland	-11.8205
▁kelly	-11.8206
▁capri	-11.8208
▁matanza	-11.8214
▁abuela	-11.8216
▁vasca	-11.8219
▁nominal	-11.8219
▁neerlandés	-11.8221
▁ecológico	-11.8223
▁bautizado	-11.8226
▁mountain	-11.823
▁ánimo	-11.823
▁ingenio	-11.8236
▁0.17	-11.8239
▁orleans	-11.8239
▁líbano	-11.8239
futbolista	-11.824
▁fiebre	-11.8248
▁anticipa	-11.8249
▁improvis	-11.8256
▁horror	-11.8258
▁eugenio	-11.8265
ícola	-11.827
▁aprovech	-11.8272
▁confundir	-11.8277
▁financiació	-11.8277
▁suicidio	-11.8292
▁host	-11.8293
▁magnético	-11.8294
▁0.13	-11.8298
▁accesible	-11.8301
▁introduce	-11.8305
▁sensibilidad	-11.831
▁alegría	-11.831
▁dragón	-11.831
▁rompió	-11.8318
▁azteca	-11.8319
▁promedia	-11.832
▁disponía	-11.8327
▁patrulla	-11.8327
▁romántica	-11.8327
▁eficacia	-11.8327
adicionalmente	-11.8329
nscripciones	-11.8336
▁aguirre	-11.8336
andino	-11.8338
0.21	-11.8343
▁nomenclatura	-11.8345
incapaz	-11.8345
▁bloom	-11.8349
▁expediciones	-11.8354
▁perseguido	-11.8354
▁encomend	-11.8355
▁racial	-11.836
▁dándole	-11.8361
▁micrófono	-11.8363
▁pakistán	-11.8363
9,7	-11.837
▁declive	-11.8372
▁0.15	-11.8373
▁portador	-11.8379
▁escape	-11.8394
▁prevenir	-11.8396
д	-11.8399
▁eclesiástica	-11.8399
▁hamburgo	-11.8399
9,1	-11.84
▁lucía	-11.8407
▁orquídea	-11.8408
▁sueca	-11.8409
▁jimm	-11.8412
▁directivo	-11.8417
9,6	-11.8426
▁expuesta	-11.8435
▁kepler	-11.8444
▁bachillerato	-11.8444
▁reanud	-11.8444
β	-11.8453
estadounidense	-11.8456
▁tiende	-11.8456
▁atraer	-11.8462
▁british	-11.8462
▁expectativa	-11.8471
▁ocurrir	-11.8471
▁ajedrez	-11.848
▁egipcia	-11.848
▁robin	-11.848
▁armadura	-11.8483
▁prioridad	-11.8486
▁dividió	-11.8489
▁muerta	-11.8489
▁darwin	-11.8497
▁sinónimo	-11.8498
▁explícita	-11.8507
▁rubén	-11.8508
▁antología	-11.8511
▁macedonia	-11.8516
▁what	-11.8516
▁fusion	-11.8524
▁conceptual	-11.8534
▁aparecía	-11.8535
▁presos	-11.8543
▁arrastra	-11.8544
▁salieron	-11.8549
▁cotidiana	-11.8552
▁ensambla	-11.8552
▁artefacto	-11.8561
▁auténtico	-11.857
▁circunscripción	-11.857
▁espectacular	-11.857
▁vértice	-11.857
▁twitter	-11.857
3.000	-11.8579
▁accidental	-11.8579
▁solidaridad	-11.8579
▁ingrediente	-11.8589
▁cuarteto	-11.8589
▁sólida	-11.8589
5.3	-11.8597
5.8	-11.8597
▁referido	-11.8598
▁trayecto	-11.8605
▁perfora	-11.8619
▁mozart	-11.8625
▁buscó	-11.8629
▁morelos	-11.8636
▁mencion	-11.865
▁salazar	-11.865
▁emblema	-11.8653
▁estabiliza	-11.8655
▁méndez	-11.8662
craft	-11.8663
▁cruel	-11.8664
4.5	-11.8667
▁dominicano	-11.867
▁berlin	-11.868
▁defensiva	-11.868
▁amazonas	-11.8683
▁hernán	-11.869
▁orange	-11.869
▁cuántica	-11.8699
▁nordeste	-11.8699
▁ausente	-11.8706
▁túnez	-11.8708
▁criollo	-11.8708
▁budista	-11.8713
6.3	-11.8717
▁eurocopa	-11.8717
▁panorama	-11.8717
▁artesanía	-11.8717
▁reunido	-11.8718
▁ascender	-11.8726
éndola	-11.873
▁filipino	-11.8733
▁árbitro	-11.8736
▁jalisco	-11.8736
6.5	-11.8757
▁secular	-11.8759
▁cartucho	-11.8764
▁arsenal	-11.8765
mouth	-11.8776
▁cleveland	-11.8782
▁corregimiento	-11.8782
▁sociología	-11.8784
▁confronta	-11.8785
▁jonathan	-11.8791
break	-11.8798
▁desciende	-11.8802
▁gordon	-11.8803
▁week	-11.8816
▁charlotte	-11.8819
▁vélez	-11.8819
▁spencer	-11.8819
▁autobús	-11.8829
ος	-11.8829
▁barranco	-11.8829
▁marquesa	-11.883
▁limpieza	-11.8838
▁jerarquía	-11.8847
▁magazine	-11.8847
▁edificación	-11.8852
▁suponía	-11.8857
▁tabaco	-11.8866
▁disminuir	-11.8876
▁contienda	-11.8876
▁heights	-11.8876
▁constantino	-11.8884
▁exponente	-11.8886
▁comisiones	-11.8904
▁templado	-11.8906
▁recogida	-11.8913
▁sombrero	-11.8913
▁billetes	-11.8913
▁acompañó	-11.8923
▁retorn	-11.8924
▁malasia	-11.8926
▁pedr	-11.8928
▁acústica	-11.8932
▁comisionado	-11.8932
▁filosófica	-11.8932
▁concedido	-11.8932
▁transversal	-11.8932
▁sorprendente	-11.894
▁acorazado	-11.8942
▁defiende	-11.8942
▁constituir	-11.8951
▁antártica	-11.8961
▁leipzig	-11.897
fantas	-11.8977
▁patricio	-11.898
▁shakespeare	-11.8989
▁tailandia	-11.8989
▁profeta	-11.8994
▁saturn	-11.9001
▁inundaciones	-11.9008
▁creciendo	-11.9018
nominación	-11.9026
▁guatemalteco	-11.9027
▁theatre	-11.9027
▁arcilla	-11.9027
borough	-11.9027
▁peregrina	-11.9037
▁balonmano	-11.9037
▁seguimiento	-11.9037
▁impide	-11.9045
abastecimiento	-11.9056
▁computación	-11.9056
▁magistrado	-11.9056
▁amplifica	-11.9056
δ	-11.9065
▁singapur	-11.9065
▁especímen	-11.9075
▁alvarado	-11.9075
▁originó	-11.9084
▁complemento	-11.9094
▁excesiva	-11.9094
▁judaísmo	-11.9094
▁thompson	-11.9094
▁parodia	-11.9094
▁tenor	-11.9097
▁férrea	-11.9104
▁desgracia	-11.9104
▁amplió	-11.9113
▁epidemia	-11.9123
▁erudito	-11.9123
▁constancia	-11.9123
▁piscina	-11.9123
▁fragmenta	-11.9123
▁hombro	-11.9124
▁valentí	-11.9124
▁contact	-11.9125
▁aminoácido	-11.9133
▁práctico	-11.9133
▁decadencia	-11.9133
▁olimpia	-11.9133
▁latinoamericana	-11.9133
▁leonor	-11.9141
▁adolescencia	-11.9142
▁extinto	-11.9143
▁taquilla	-11.9148
▁arquitectónica	-11.9152
▁estímulo	-11.9152
bacter	-11.9161
▁traspasa	-11.917
▁hudson	-11.9171
▁bibliografía	-11.9171
▁editó	-11.9176
▁hincha	-11.9177
▁televisa	-11.9181
▁donald	-11.9187
▁antropo	-11.919
▁válvula	-11.92
▁excelencia	-11.92
▁navegador	-11.9201
▁concluir	-11.921
▁caudillo	-11.921
▁lienzo	-11.921
▁decisiva	-11.921
▁subterráneo	-11.922
▁acogida	-11.922
▁moderada	-11.922
▁portavoz	-11.9229
▁heinrich	-11.9229
▁detective	-11.9229
▁inserta	-11.9241
struyó	-11.9245
γ	-11.9249
▁reunieron	-11.9249
▁lombard	-11.9249
gestión	-11.9255
▁astronomía	-11.9259
▁marketing	-11.9259
▁blood	-11.926
▁stanley	-11.9261
html	-11.9268
м	-11.9268
▁concacaf	-11.9268
▁perturba	-11.9268
▁comisario	-11.9269
▁maduro	-11.927
▁incendi	-11.9274
▁lejano	-11.929
▁kiev	-11.9292
▁prestigioso	-11.9293
ž	-11.9298
▁inconsciente	-11.9298
▁traducciones	-11.9298
▁patricia	-11.9298
▁perenne	-11.9299
▁atributo	-11.9305
▁hormigón	-11.9308
▁posesione	-11.931
▁precipitación	-11.9317
▁iraní	-11.9318
▁chihuahua	-11.9327
▁jamaica	-11.9327
ß	-11.9536
ï	-11.9556
þ	-11.9728
ي	-12.034
ر	-12.0493
م	-12.0728
η	-12.0762
ό	-12.0796
ă	-12.0807
î	-12.0876
ά	-12.0957
у	-12.1203
ý	-12.125
ί	-12.137
ś	-12.1455
υ	-12.1877
ن	-12.1928
г	-12.203
ğ	-12.2424
£	-12.2614
ω	-12.2614
ń	-12.2876
п	-12.3032
ب	-12.3468
φ	-12.3878
ē	-12.3956
я	-12.4018
б	-12.4066
→	-12.4097
й	-12.4209
đ	-12.4305
ч	-12.4651
و	-12.4837
θ	-12.4957
ì	-12.5344
@	-12.5434
د	-12.5916
ь	-12.6011
χ	-12.6283
ù	-12.6462
ã	-12.6696
י	-12.6768
ř	-12.7019
س	-12.7104
ы	-12.7126
з	-12.7364
û	-12.7408
ə	-12.7586
†	-12.7813
′	-12.7929
ו	-12.8046
ة	-12.8046
ę	-12.8046
ě	-12.8164
έ	-12.8235
ː	-12.8283
ύ	-12.8651
õ	-12.893
ż	-12.8981
ή	-12.9007
х	-12.9216
ع	-12.9871
`	-13.0392
ר	-13.0392
⁄	-13.0482
ș	-13.0572
̇	-13.0725
ت	-13.0786
ц	-13.1164
ć	-13.1174
œ	-13.1229
ˈ	-13.1326
ה	-13.1692
ح	-13.1862
א	-13.1931
ą	-13.2141
ー	-13.2248
ه	-13.232
ш	-13.2724
ė	-13.2838
ա	-13.3068
ל	-13.3107
ḥ	-13.3225
ج	-13.3225
ك	-13.4176
ف	-13.4219
ق	-13.4574
ἀ	-13.4665
ʻ	-13.4942
ж	-13.5036
מ	-13.5227
ン	-13.5275
ב	-13.5721
ת	-13.5823
ा	-13.5823
ő	-13.6187
і	-13.624
ی	-13.6402
נ	-13.6732
ش	-13.6902
َ	-13.6959
ש	-13.7016
ț	-13.7074
ф	-13.7074
ώ	-13.725
ǎ	-13.7428
ź	-13.7488
э	-13.7488
‐	-13.761
の	-13.761
大	-13.7671
ṣ	-13.7858
®	-13.7921
ζ	-13.7921
ξ	-13.8048
्	-13.8048
ز	-13.8708
„	-13.8776
ד	-13.8985
ъ	-13.927
ص	-13.9342
ţ	-13.9488
‹	-13.9563
›	-13.9637
ʿ	-13.9788
ɛ	-13.9788
ʾ	-13.9788
ם	-13.9788
र	-13.9788
部	-13.9788
ა	-13.9864
ط	-14.0019
ი	-14.0416
ն	-14.0497
ň	-14.0579
ע	-14.0579
أ	-14.0829
ո	-14.0914
ր	-14.0914
า	-14.0914
中	-14.0914
ю	-14.0914
כ	-14.0999
ル	-14.1085
ラ	-14.1172
子	-14.1349
ス	-14.1438
ּ	-14.1528
イ	-14.1528
ṭ	-14.1619
ũ	-14.1897
ɪ	-14.1991
خ	-14.2086
ŷ	-14.2086
山	-14.2182
ん	-14.228
ト	-14.228
ĭ	-14.2378
ח	-14.2378
ɔ	-14.2477
ả	-14.2477
क	-14.2577
C	-14.2678
ǐ	-14.2678
ŏ	-14.278
म	-14.278
்	-14.278
ッ	-14.2883
ָ	-14.2883
ן	-14.3306
§	-14.3415
ψ	-14.3415
ἐ	-14.3415
ס	-14.3525
ु	-14.3636
ǔ	-14.3636
ְ	-14.3636
人	-14.3636
ġ	-14.3977
ħ	-14.3977
ὰ	-14.3977
道	-14.3977
ե	-14.4093
	-14.4093
ի	-14.4211
ק	-14.4211
ἰ	-14.4211
≤	-14.4211
ʃ	-14.433
ܟ	-14.4572
‰	-14.4572
ク	-14.4572
一	-14.4572
リ	-14.4947
ɑ	-14.5075
王	-14.5075
田	-14.5075
ִ	-14.5075
ệ	-14.5205
国	-14.5205
ῖ	-14.5205
ŭ	-14.5337
न	-14.5337
گ	-14.547
া	-14.547
ि	-14.5605
・	-14.5605
น	-14.5742
区	-14.5742
ё	-14.5742
ạ	-14.5881
ơ	-14.5881
ս	-14.6022
ى	-14.6022
ी	-14.6022
ḫ	-14.6022
天	-14.6022
ư	-14.6165
ร	-14.631
ג	-14.631
ア	-14.6457
ÿ	-14.6457
ʒ	-14.6457
त	-14.6758
ṃ	-14.6758
ַ	-14.6758
פ	-14.6758
غ	-14.6758
რ	-14.6758
щ	-14.6911
ე	-14.6911
シ	-14.6911
ἄ	-14.6911
ल	-14.7226
ṇ	-14.7388
ט	-14.7388
ِ	-14.7388
≈	-14.7388
い	-14.7388
ћ	-14.7552
ŋ	-14.7552
ं	-14.7552
་	-14.7552
ῦ	-14.7552
新	-14.7718
ّ	-14.7718
¬	-14.7888
ぶ	-14.7888
國	-14.7888
ņ	-14.7888
ド	-14.7888
ւ	-14.806
ُ	-14.806
ứ	-14.806
日	-14.806
도	-14.806
ʊ	-14.806
し	-14.806
ĕ	-14.8236
ɣ	-14.8236
ј	-14.8236
ז	-14.8236
東	-14.8236
צ	-14.8236
ồ	-14.8236
ĩ	-14.8236
√	-14.8414
↑	-14.8596
南	-14.8596
	-14.8596
ს	-14.8781
≥	-14.8781
本	-14.8781
高	-14.8781
ض	-14.897
ء	-14.897
ْ	-14.897
城	-14.897
ḍ	-14.9162
北	-14.9162
海	-14.9162
إ	-14.9358
ů	-14.9358
ế	-14.9358
公	-14.9358
レ	-14.9358
ܡ	-14.9558
स	-14.9558
う	-14.9558
な	-14.9558
り	-14.9558
江	-14.9558
的	-14.9558
金	-14.9558
フ	-14.9558
バ	-14.9558
ก	-14.9762
る	-14.9762
ム	-14.9762
կ	-14.9971
ֹ	-14.9971
प	-14.9971
ܐ	-14.9971
小	-14.9971
文	-14.9971
ィ	-14.9971
カ	-14.9971
տ	-15.0183
ئ	-15.0184
ო	-15.0184
≠	-15.0184
太	-15.0184
女	-15.0184
林	-15.0184
西	-15.0184
ி	-15.0184
ὐ	-15.0184
ज	-15.0401
ɾ	-15.0401
ย	-15.0401
ლ	-15.0623
ǒ	-15.0623
ʔ	-15.0623
ῆ	-15.0623
♫	-15.0623
京	-15.0623
Z	-15.085
ɡ	-15.085
द	-15.085
্	-15.085
്	-15.085
─	-15.085
明	-15.085
র	-15.085
ம	-15.085
เ	-15.085
ḗ	-15.085
タ	-15.085
մ	-15.1083
地	-15.1083
家	-15.1083
李	-15.1083
神	-15.1083
¢	-15.1321
ग	-15.1321
∈	-15.1321
≪	-15.1321
●	-15.1321
ウ	-15.1321
三	-15.1321
上	-15.1321
四	-15.1321
ذ	-15.1565
河	-15.1565
ジ	-15.1815
テ	-15.1815
武	-15.1815
美	-15.1815
ֶ	-15.1815
ா	-15.1815
と	-15.1815
ม	-15.1815
チ	-15.1815
ง	-15.2071
յ	-15.2071
व	-15.2071
ह	-15.2071
ो	-15.2071
ṯ	-15.2071
≡	-15.2071
コ	-15.2071
会	-15.2071
年	-15.2071
조	-15.2071
ܪ	-15.2334
ナ	-15.2335
¥	-15.2335
ť	-15.2335
≫	-15.2335
マ	-15.2335
不	-15.2335
生	-15.2335
百	-15.2335
ิ	-15.2335
く	-15.2335
ニ	-15.2335
ブ	-15.2335
ֵ	-15.2605
ث	-15.2605
க	-15.2605
ἔ	-15.2605
キ	-15.2605
川	-15.2605
我	-15.2605
華	-15.2605
성	-15.2605
이	-15.2605
ک	-15.2605
ミ	-15.2605
თ	-15.2605
ܘ	-15.2882
อ	-15.2883
े	-15.2883
ვ	-15.2883
ὶ	-15.2883
お	-15.2883
八	-15.2883
教	-15.2883
民	-15.2883
水	-15.2883
ล	-15.2883
ャ	-15.2883
∴	-15.3168
学	-15.3168
拳	-15.3168
月	-15.3168
정	-15.3168
ĉ	-15.3168
த	-15.3168
ว	-15.3168
プ	-15.3462
堂	-15.3462
ั	-15.3462
ˌ	-15.3462
ү	-15.3462
լ	-15.3765
ḷ	-15.3765
ễ	-15.3765
县	-15.3765
安	-15.3765
歌	-15.3765
野	-15.3765
기	-15.3765
ズ	-15.3765
ダ	-15.3765
ะ	-15.4078
գ	-15.4078
ロ	-15.4078
͡	-15.4078
य	-15.4078
ἱ	-15.4078
♭	-15.4078
が	-15.4078
ち	-15.4078
之	-15.4078
合	-15.4078
平	-15.4078
愛	-15.4078
星	-15.4078
有	-15.4078
空	-15.4078
路	-15.4078
青	-15.4078
音	-15.4078
한	-15.4078
ர	-15.4078
パ	-15.4078
た	-15.4401
て	-15.4401
ƒ	-15.4401
ন	-15.4401
ầ	-15.4401
ὸ	-15.4401
サ	-15.4401
主	-15.4401
市	-15.4401
法	-15.4401
민	-15.4401
ờ	-15.4401
բ	-15.4734
ľ	-15.4734
ׁ	-15.4734
ब	-15.4734
ἴ	-15.4734
き	-15.4734
よ	-15.4734
方	-15.4734
社	-15.4734
都	-15.4734
里	-15.4734
국	-15.4734
ɐ	-15.4734
ப	-15.4734
ბ	-15.4734
ガ	-15.4734
ὑ	-15.5079
ʼ	-15.5079
̊	-15.5079
ẓ	-15.5079
♯	-15.5079
に	-15.5079
エ	-15.5079
少	-15.5079
木	-15.5079
村	-15.5079
義	-15.5079
行	-15.5079
術	-15.5079
선	-15.5079
ি	-15.5079
ḏ	-15.5079
ุ	-15.5436
グ	-15.5436
M	-15.5436
ų	-15.5436
ল	-15.5436
も	-15.5436
原	-15.5436
式	-15.5436
自	-15.5436
香	-15.5436
수	-15.5436
ǧ	-15.5436
み	-15.5436
ட	-15.5436
ส	-15.5436
հ	-15.5806
ἑ	-15.5806
ʕ	-15.5806
メ	-15.5806
T	-15.5806
श	-15.5806
∞	-15.5806
元	-15.5806
手	-15.5806
流	-15.5806
白	-15.5806
花	-15.5806
郎	-15.5806
ῶ	-15.5806
վ	-15.6191
ョ	-15.6191
ῥ	-15.6191
F	-15.6191
ǫ	-15.6191
ך	-15.6191
ต	-15.6191
ნ	-15.6191
こ	-15.6191
オ	-15.6191
ツ	-15.6191
モ	-15.6191
光	-15.6191
場	-15.6191
士	-15.6191
心	-15.6191
甲	-15.6191
石	-15.6191
長	-15.6191
의	-15.6191
ɕ	-15.6191
آ	-15.6191
қ	-15.6191
թ	-15.6591
ք	-15.6591
あ	-15.6591
ʈ	-15.6591
ṛ	-15.6591
ま	-15.6591
丁	-15.6591
五	-15.6591
你	-15.6591
區	-15.6591
島	-15.6591
帝	-15.6591
治	-15.6591
দ	-15.6591
デ	-15.6591
ี	-15.6591
は	-15.6591
ղ	-15.7007
ে	-15.7007
★	-15.7007
さ	-15.7007
下	-15.7007
仙	-15.7007
十	-15.7007
司	-15.7007
州	-15.7007
皇	-15.7007
門	-15.7007
김	-15.7007
ব	-15.7007
ு	-15.7007
ὄ	-15.7007
ச	-15.7007
か	-15.7007
კ	-15.7442
ङ	-15.7442
শ	-15.7442
ห	-15.7442
ọ	-15.7442
↔	-15.7442
え	-15.7442
七	-15.7442
古	-15.7442
洋	-15.7442
相	-15.7442
羅	-15.7442
聖	-15.7442
阳	-15.7442
陽	-15.7442
대	-15.7442
동	-15.7442
사	-15.7442
원	-15.7442
화	-15.7442
～	-15.7442
უ	-15.7442
を	-15.7442
じ	-15.7442
ـ	-15.7442
ช	-15.7897
ὀ	-15.7897
դ	-15.7897
ܝ	-15.7897
მ	-15.7897
ビ	-15.7897
ļ	-15.7897
ɒ	-15.7897
ʂ	-15.7897
̀	-15.7897
अ	-15.7897
่	-15.7897
ậ	-15.7897
⋅	-15.7897
世	-15.7897
園	-15.7897
富	-15.7897
春	-15.7897
會	-15.7897
楽	-15.7897
港	-15.7897
漢	-15.7897
院	-15.7897
馬	-15.7897
무	-15.7897
주	-15.7897
け	-15.7897
ट	-15.8373
R	-15.8373
ʹ	-15.8373
ण	-15.8373
ல	-15.8373
్	-15.8373
်	-15.8373
「	-15.8373
代	-15.8373
台	-15.8373
君	-15.8373
唐	-15.8373
正	-15.8373
真	-15.8373
谷	-15.8373
리	-15.8373
인	-15.8373
제	-15.8373
つ	-15.8373
պ	-15.8873
ɨ	-15.8873
ɲ	-15.8873
ʁ	-15.8873
ོ	-15.8873
ộ	-15.8873
」	-15.8873
っ	-15.8873
ケ	-15.8873
刀	-15.8873
口	-15.8873
周	-15.8873
物	-15.8873
祖	-15.8873
言	-15.8873
黃	-15.8873
우	-15.8873
ĝ	-15.8873
வ	-15.8873
ท	-15.8873
च	-15.9399
ា	-15.9399
្	-15.9399
ᾶ	-15.9399
♀	-15.9399
ひ	-15.9399
ァ	-15.9399
二	-15.9399
作	-15.9399
六	-15.9399
夜	-15.9399
寺	-15.9399
張	-15.9399
德	-15.9399
族	-15.9399
株	-15.9399
特	-15.9399
福	-15.9399
科	-15.9399
記	-15.9399
起	-15.9399
辛	-15.9399
부	-15.9399
왕	-15.9399
ؤ	-15.9399
چ	-15.9399
セ	-15.9399
ェ	-15.9955
დ	-15.9955
L	-15.9955
ց	-15.9955
ू	-15.9955
ক	-15.9955
ị	-15.9955
▪	-15.9955
ら	-15.9955
九	-15.9955
仁	-15.9955
史	-15.9955
成	-15.9955
松	-15.9955
橋	-15.9955
無	-15.9955
舞	-15.9955
越	-15.9955
通	-15.9955
風	-15.9955
신	-15.9955
지	-15.9955
	-15.9955
ʋ	-15.9955
ظ	-15.9955
ẋ	-15.9955
ヴ	-15.9955
ด	-15.9955
ハ	-15.9955
̄	-16.0543
̞	-16.0543
ў	-16.0543
ু	-16.0543
ത	-16.0543
ტ	-16.0543
‒	-16.0543
₩	-16.0543
♂	-16.0543
✔	-16.0543
ュ	-16.0543
伝	-16.0543
伯	-16.0543
利	-16.0543
华	-16.0543
场	-16.0543
戦	-16.0543
朱	-16.0543
机	-16.0543
火	-16.0543
男	-16.0543
阿	-16.0543
상	-16.0543
아	-16.0543
پ	-16.0543
স	-16.0543
გ	-16.0543
ベ	-16.0543
ɯ	-16.1168
ి	-16.1168
ര	-16.1168
ས	-16.1168
ꜣ	-16.1168
	-16.1168
̥	-16.1168
ম	-16.1168
ী	-16.1168
್	-16.1168
์	-16.1168
བ	-16.1168
め	-16.1168
ろ	-16.1168
ネ	-16.1168
ノ	-16.1168
万	-16.1168
东	-16.1168
号	-16.1168
基	-16.1168
外	-16.1168
景	-16.1168
朝	-16.1168
沙	-16.1168
玉	-16.1168
球	-16.1168
知	-16.1168
雪	-16.1168
พ	-16.1835
÷	-16.1835
ŕ	-16.1835
ɬ	-16.1835
̂	-16.1835
ї	-16.1835
ہ	-16.1835
ड	-16.1835
़	-16.1835
ా	-16.1835
ད	-16.1835
ẽ	-16.1835
す	-16.1835
ギ	-16.1835
ザ	-16.1835
ボ	-16.1835
了	-16.1835
事	-16.1835
分	-16.1835
化	-16.1835
好	-16.1835
字	-16.1835
庚	-16.1835
書	-16.1835
英	-16.1835
蒙	-16.1835
藤	-16.1835
血	-16.1835
語	-16.1835
走	-16.1835
集	-16.1835
韓	-16.1835
龍	-16.1835
자	-16.1835
ன	-16.1835
ய	-16.1835
ἶ	-16.1835
	-16.2549
­	-16.2549
ʌ	-16.2549
љ	-16.2549
ট	-16.2549
ந	-16.2549
ರ	-16.2549
ಾ	-16.2549
්	-16.2549
ค	-16.2549
้	-16.2549
ར	-16.2549
ἅ	-16.2549
‭	-16.2549
←	-16.2549
ⴰ	-16.2549
ゃ	-16.2549
ゴ	-16.2549
ソ	-16.2549
剣	-16.2549
博	-16.2549
圣	-16.2549
在	-16.2549
夫	-16.2549
學	-16.2549
宝	-16.2549
宮	-16.2549
打	-16.2549
放	-16.2549
斗	-16.2549
曹	-16.2549
校	-16.2549
段	-16.2549
永	-16.2549
独	-16.2549
航	-16.2549
良	-16.2549
色	-16.2549
若	-16.2549
赤	-16.2549
軍	-16.2549
陈	-16.2549
陳	-16.2549
雄	-16.2549
食	-16.2549
黒	-16.2549
가	-16.2549
다	-16.2549
산	-16.2549
ű	-16.2549
भ	-16.2549
ত	-16.2549
ി	-16.2549
ổ	-16.2549
ὕ	-16.2549
れ	-16.2549
প	-16.2549
ქ	-16.2549
ċ	-16.3318
ぷ	-16.3318
K	-16.3318
	-16.3318
	-16.3318
ĥ	-16.3318
̓	-16.3318
য	-16.3318
ಿ	-16.3318
ല	-16.3318
บ	-16.3318
ἕ	-16.3318
ὅ	-16.3318
‪	-16.3318
⟨	-16.3318
⟩	-16.3318
。	-16.3318
せ	-16.3318
だ	-16.3318
使	-16.3318
先	-16.3318
出	-16.3318
動	-16.3318
千	-16.3318
宇	-16.3318
崎	-16.3318
张	-16.3318
技	-16.3318
最	-16.3318
未	-16.3318
死	-16.3318
理	-16.3318
町	-16.3318
經	-16.3318
老	-16.3318
街	-16.3318
衛	-16.3318
見	-16.3318
貴	-16.3318
超	-16.3318
铁	-16.3318
门	-16.3318
雨	-16.3318
雲	-16.3318
静	-16.3318
鬼	-16.3318
고	-16.3318
관	-16.3318
니	-16.3318
비	-16.3318
서	-16.3318
스	-16.3318
종	-16.3318
호	-16.3318
ϊ	-16.3318
ռ	-16.3318
ാ	-16.3318
ֲ	-16.3318
შ	-16.4152
ǝ	-16.4152
រ	-16.4152
へ	-16.4152
է	-16.4152
ष	-16.4152
വ	-16.4152
ു	-16.4152
ා	-16.4152
ន	-16.4152
ấ	-16.4152
ỉ	-16.4152
‍	-16.4152
₤	-16.4152
∝	-16.4152
⊕	-16.4152
♥	-16.4152
で	-16.4152
ど	-16.4152
ゅ	-16.4152
ゆ	-16.4152
ピ	-16.4152
ワ	-16.4152
乙	-16.4152
井	-16.4152
吉	-16.4152
同	-16.4152
团	-16.4152
土	-16.4152
如	-16.4152
官	-16.4152
定	-16.4152
尔	-16.4152
尾	-16.4152
岛	-16.4152
座	-16.4152
是	-16.4152
時	-16.4152
来	-16.4152
果	-16.4152
樂	-16.4152
母	-16.4152
爱	-16.4152
由	-16.4152
界	-16.4152
経	-16.4152
能	-16.4152
臣	-16.4152
长	-16.4152
魔	-16.4152
어	-16.4152
영	-16.4152
오	-16.4152
일	-16.4152
전	-16.4152
진	-16.4152
є	-16.4152
മ	-16.4152
ხ	-16.5061
ֱ	-16.5061
इ	-16.5061
ป	-16.5061
ŝ	-16.5061
ɦ	-16.5061
ʎ	-16.5061
̪	-16.5061
̯	-16.5061
њ	-16.5061
զ	-16.5061
জ	-16.5061
ਰ	-16.5061
ర	-16.5061
പ	-16.5061
ေ	-16.5061
አ	-16.5061
ម	-16.5061
ស	-16.5061
ṅ	-16.5061
ự	-16.5061
‌	-16.5061
‚	-16.5061
《	-16.5061
》	-16.5061
ば	-16.5061
仲	-16.5061
伊	-16.5061
体	-16.5061
共	-16.5061
半	-16.5061
可	-16.5061
名	-16.5061
后	-16.5061
嘉	-16.5061
坂	-16.5061
多	-16.5061
姉	-16.5061
工	-16.5061
幸	-16.5061
府	-16.5061
所	-16.5061
拉	-16.5061
桃	-16.5061
森	-16.5061
楊	-16.5061
沢	-16.5061
电	-16.5061
礁	-16.5061
秋	-16.5061
立	-16.5061
紀	-16.5061
編	-16.5061
者	-16.5061
説	-16.5061
足	-16.5061
遊	-16.5061
達	-16.5061
遠	-16.5061
重	-16.5061
공	-16.5061
당	-16.5061
마	-16.5061
백	-16.5061
유	-16.5061
해	-16.5061
현	-16.5061
չ	-16.5061
ไ	-16.5061
ө	-16.5061
จ	-16.6061
ុ	-16.6061
ῑ	-16.6061
ふ	-16.6061
ĵ	-16.6061
ɜ	-16.6061
̆	-16.6061
̟	-16.6061
̱	-16.6061
̶	-16.6061
ף	-16.6061
थ	-16.6061
ध	-16.6061
়	-16.6061
ํ	-16.6061
ང	-16.6061
မ	-16.6061
ძ	-16.6061
ប	-16.6061
ヤ	-16.6061
乐	-16.6061
信	-16.6061
儺	-16.6061
全	-16.6061
关	-16.6061
制	-16.6061
前	-16.6061
創	-16.6061
力	-16.6061
动	-16.6061
勇	-16.6061
声	-16.6061
孫	-16.6061
実	-16.6061
对	-16.6061
岡	-16.6061
峰	-16.6061
師	-16.6061
度	-16.6061
建	-16.6061
忠	-16.6061
念	-16.6061
恩	-16.6061
情	-16.6061
朗	-16.6061
望	-16.6061
柔	-16.6061
氣	-16.6061
泰	-16.6061
洪	-16.6061
清	-16.6061
牛	-16.6061
狼	-16.6061
猫	-16.6061
秀	-16.6061
精	-16.6061
育	-16.6061
芸	-16.6061
草	-16.6061
要	-16.6061
話	-16.6061
車	-16.6061
運	-16.6061
酒	-16.6061
銀	-16.6061
關	-16.6061
防	-16.6061
電	-16.6061
面	-16.6061
首	-16.6061
魂	-16.6061
黄	-16.6061
단	-16.6061
덕	-16.6061
로	-16.6061
만	-16.6061
박	-16.6061
양	-16.6061
장	-16.6061
재	-16.6061
하	-16.6061
ˁ	-16.6061
ђ	-16.6061
ো	-16.6061
ವ	-16.6061
ᴚ	-16.6061
ׂ	-16.6061
ை	-16.6061
ܕ	-16.7172
ং	-16.7172
ἠ	-16.7172
ķ	-16.7172
̌	-16.7172
̝	-16.7172
̣	-16.7172
ܒ	-16.7172
ܬ	-16.7172
མ	-16.7172
ལ	-16.7172
ာ	-16.7172
ត	-16.7172
ủ	-16.7172
ὲ	-16.7172
₱	-16.7172
⇒	-16.7172
∧	-16.7172
⊆	-16.7172
、	-16.7172
ょ	-16.7172
书	-16.7172
亳	-16.7172
保	-16.7172
修	-16.7172
兩	-16.7172
劉	-16.7172
加	-16.7172
包	-16.7172
取	-16.7172
呼	-16.7172
員	-16.7172
唱	-16.7172
奈	-16.7172
威	-16.7172
宗	-16.7172
室	-16.7172
寧	-16.7172
康	-16.7172
影	-16.7172
彼	-16.7172
徐	-16.7172
志	-16.7172
恋	-16.7172
承	-16.7172
政	-16.7172
施	-16.7172
普	-16.7172
曲	-16.7172
条	-16.7172
棒	-16.7172
次	-16.7172
毛	-16.7172
氏	-16.7172
気	-16.7172
沈	-16.7172
泉	-16.7172
洲	-16.7172
浪	-16.7172
湖	-16.7172
澳	-16.7172
玄	-16.7172
玲	-16.7172
画	-16.7172
省	-16.7172
秦	-16.7172
竹	-16.7172
笑	-16.7172
羽	-16.7172
胡	-16.7172
至	-16.7172
觀	-16.7172
詩	-16.7172
话	-16.7172
象	-16.7172
身	-16.7172
過	-16.7172
那	-16.7172
郡	-16.7172
闘	-16.7172
限	-16.7172
陵	-16.7172
陸	-16.7172
雅	-16.7172
館	-16.7172
鮮	-16.7172
麗	-16.7172
黑	-16.7172
나	-16.7172
문	-16.7172
시	-16.7172
요	-16.7172
천	-16.7172
합	-16.7172
𐤀	-16.7172
ŵ	-16.7172
ങ	-16.7172
ག	-16.7172
そ	-16.7172
ヒ	-16.7172
ದ	-16.7172
ന	-16.7172
խ	-16.8422
ܢ	-16.8422
პ	-16.8422
ծ	-16.8422
ក	-16.8422
យ	-16.8422
ゥ	-16.8422
ď	-16.8422
ʏ	-16.8422
ˀ	-16.8422
ґ	-16.8422
ұ	-16.8422
շ	-16.8422
ً	-16.8422
গ	-16.8422
ਸ	-16.8422
ள	-16.8422
ల	-16.8422
ญ	-16.8422
ྲ	-16.8422
ფ	-16.8422
ት	-16.8422
ኀ	-16.8422
ḇ	-16.8422
ắ	-16.8422
ố	-16.8422
ὺ	-16.8422
‧	-16.8422
〜	-16.8422
ぐ	-16.8422
や	-16.8422
ォ	-16.8422
丙	-16.8422
何	-16.8422
余	-16.8422
內	-16.8422
典	-16.8422
内	-16.8422
冬	-16.8422
切	-16.8422
印	-16.8422
去	-16.8422
友	-16.8422
吴	-16.8422
命	-16.8422
型	-16.8422
塔	-16.8422
墨	-16.8422
夏	-16.8422
夢	-16.8422
密	-16.8422
寶	-16.8422
岩	-16.8422
岳	-16.8422
己	-16.8422
庁	-16.8422
廣	-16.8422
当	-16.8422
御	-16.8422
思	-16.8422
想	-16.8422
戊	-16.8422
戸	-16.8422
拓	-16.8422
敬	-16.8422
斯	-16.8422
无	-16.8422
杜	-16.8422
殿	-16.8422
活	-16.8422
浩	-16.8422
演	-16.8422
点	-16.8422
燕	-16.8422
父	-16.8422
申	-16.8422
直	-16.8422
禁	-16.8422
秩	-16.8422
臺	-16.8422
苏	-16.8422
茶	-16.8422
葉	-16.8422
解	-16.8422
論	-16.8422
记	-16.8422
賀	-16.8422
関	-16.8422
隆	-16.8422
隊	-16.8422
頭	-16.8422
飛	-16.8422
麻	-16.8422
개	-16.8422
계	-16.8422
교	-16.8422
라	-16.8422
세	-16.8422
소	-16.8422
안	-16.8422
위	-16.8422
은	-16.8422
최	-16.8422
ǣ	-16.8422
চ	-16.8422
அ	-16.8422
ண	-16.8422
ừ	-16.8422
ἁ	-16.8422
ἥ	-16.8422
ⵓ	-16.8422
ゼ	-16.8422
ѣ	-16.8422
ಪ	-16.8422
ศ	-16.8422
ະ	-16.985
າ	-16.985
ນ	-16.985
ත	-16.985
โ	-16.985
ជ	-16.985
օ	-16.985
ܓ	-16.985
আ	-16.985
ਾ	-16.985
ฟ	-16.985
ု	-16.985
ჯ	-16.985
ご	-16.985
ホ	-16.985
	-16.985
ǵ	-16.985
ȝ	-16.985
ʉ	-16.985
ʧ	-16.985
̩	-16.985
͂	-16.985
ϩ	-16.985
ը	-16.985
ճ	-16.985
ץ	-16.985
،	-16.985
ٍ	-16.985
ख	-16.985
න	-16.985
ර	-16.985
စ	-16.985
ြ	-16.985
ር	-16.985
ἂ	-16.985
ὔ	-16.985
ὠ	-16.985
℘	-16.985
∃	-16.985
∙	-16.985
∪	-16.985
◊	-16.985
♪	-16.985
ず	-16.985
び	-16.985
わ	-16.985
ポ	-16.985
ユ	-16.985
丽	-16.985
乃	-16.985
云	-16.985
今	-16.985
任	-16.985
佐	-16.985
佛	-16.985
侯	-16.985
俊	-16.985
健	-16.985
傩	-16.985
兵	-16.985
具	-16.985
円	-16.985
刘	-16.985
初	-16.985
別	-16.985
劇	-16.985
勝	-16.985
協	-16.985
双	-16.985
叶	-16.985
园	-16.985
圓	-16.985
圖	-16.985
夷	-16.985
委	-16.985
尚	-16.985
左	-16.985
巴	-16.985
布	-16.985
希	-16.985
常	-16.985
幼	-16.985
得	-16.985
惠	-16.985
戎	-16.985
房	-16.985
支	-16.985
旗	-16.985
映	-16.985
曾	-16.985
杨	-16.985
極	-16.985
機	-16.985
比	-16.985
津	-16.985
渡	-16.985
游	-16.985
漫	-16.985
瀬	-16.985
熱	-16.985
版	-16.985
牧	-16.985
甘	-16.985
発	-16.985
盛	-16.985
監	-16.985
目	-16.985
章	-16.985
競	-16.985
第	-16.985
純	-16.985
素	-16.985
紫	-16.985
組	-16.985
維	-16.985
红	-16.985
经	-16.985
耳	-16.985
舟	-16.985
莉	-16.985
萬	-16.985
蔡	-16.985
藏	-16.985
藝	-16.985
衣	-16.985
角	-16.985
読	-16.985
貝	-16.985
辰	-16.985
过	-16.985
鐵	-16.985
陶	-16.985
雷	-16.985
风	-16.985
餓	-16.985
龙	-16.985
감	-16.985
강	-16.985
건	-16.985
경	-16.985
구	-16.985
군	-16.985
권	-16.985
그	-16.985
미	-16.985
보	-16.985
여	-16.985
역	-16.985
연	-16.985
예	-16.985
윤	-16.985
태	-16.985
학	-16.985
형	-16.985
환	-16.985
황	-16.985
𐤍	-16.985
ģ	-16.985
ٱ	-16.985
ە	-16.985
হ	-16.985
ோ	-16.985
ು	-16.985
ื	-16.985
ね	-16.985
ക	-16.985
წ	-17.1517
ⵜ	-17.1517
ʐ	-17.1517
ܵ	-17.1517
ृ	-17.1517
ै	-17.1517
લ	-17.1517
ු	-17.1517
ข	-17.1517
ู	-17.1517
แ	-17.1517
န	-17.1517
ရ	-17.1517
ぎ	-17.1517
	-17.1517
	-17.1517
ĺ	-17.1517
ɳ	-17.1517
̠	-17.1517
ΐ	-17.1517
ԭ	-17.1517
ܗ	-17.1517
ܣ	-17.1517
घ	-17.1517
ூ	-17.1517
క	-17.1517
ప	-17.1517
య	-17.1517
ජ	-17.1517
ය	-17.1517
ල	-17.1517
ธ	-17.1517
฿	-17.1517
ན	-17.1517
ུ	-17.1517
ེ	-17.1517
က	-17.1517
ပ	-17.1517
့	-17.1517
း	-17.1517
ẹ	-17.1517
ỏ	-17.1517
ớ	-17.1517
ữ	-17.1517
∀	-17.1517
∥	-17.1517
⊥	-17.1517
☉	-17.1517
ヘ	-17.1517
丹	-17.1517
于	-17.1517
什	-17.1517
佳	-17.1517
係	-17.1517
儀	-17.1517
儿	-17.1517
党	-17.1517
兴	-17.1517
农	-17.1517
到	-17.1517
務	-17.1517
卿	-17.1517
向	-17.1517
吳	-17.1517
商	-17.1517
善	-17.1517
器	-17.1517
因	-17.1517
報	-17.1517
塘	-17.1517
壬	-17.1517
央	-17.1517
奇	-17.1517
套	-17.1517
妃	-17.1517
始	-17.1517
局	-17.1517
居	-17.1517
岸	-17.1517
嶺	-17.1517
庇	-17.1517
弁	-17.1517
彫	-17.1517
忍	-17.1517
怡	-17.1517
意	-17.1517
慧	-17.1517
才	-17.1517
振	-17.1517
散	-17.1517
斤	-17.1517
易	-17.1517
札	-17.1517
术	-17.1517
朴	-17.1517
柳	-17.1517
桐	-17.1517
棋	-17.1517
樹	-17.1517
残	-17.1517
殷	-17.1517
汉	-17.1517
沃	-17.1517
波	-17.1517
淑	-17.1517
深	-17.1517
澤	-17.1517
濁	-17.1517
濟	-17.1517
然	-17.1517
熊	-17.1517
狂	-17.1517
猿	-17.1517
珠	-17.1517
看	-17.1517
研	-17.1517
砲	-17.1517
程	-17.1517
笠	-17.1517
等	-17.1517
節	-17.1517
米	-17.1517
約	-17.1517
紅	-17.1517
縣	-17.1517
纪	-17.1517
翻	-17.1517
脈	-17.1517
芝	-17.1517
范	-17.1517
菊	-17.1517
菜	-17.1517
蓮	-17.1517
虹	-17.1517
裕	-17.1517
製	-17.1517
視	-17.1517
許	-17.1517
診	-17.1517
說	-17.1517
議	-17.1517
護	-17.1517
貞	-17.1517
賦	-17.1517
车	-17.1517
農	-17.1517
达	-17.1517
進	-17.1517
選	-17.1517
郁	-17.1517
鍾	-17.1517
開	-17.1517
阪	-17.1517
際	-17.1517
震	-17.1517
非	-17.1517
革	-17.1517
須	-17.1517
馆	-17.1517
ꙥ	-17.1517
거	-17.1517
과	-17.1517
는	-17.1517
더	-17.1517
랑	-17.1517
맨	-17.1517
병	-17.1517
북	-17.1517
불	-17.1517
삼	-17.1517
식	-17.1517
을	-17.1517
타	-17.1517
회	-17.1517
𐤃	-17.1517
🇦	-17.1517
🇷	-17.1517
ɹ	-17.1517
ڠ	-17.1517
ੀ	-17.1517
ಕ	-17.1517
ི	-17.1517
ិ	-17.1517
ី	-17.1517
ῳ	-17.1517
ே	-17.1517
ณ	-17.1517
ἵ	-17.1517
ې	-17.3517
ລ	-17.3517
ສ	-17.3517
వ	-17.3517
ժ	-17.3517
ֻ	-17.3517
ǚ	-17.3517
ǥ	-17.3517
ʀ	-17.3517
ʑ	-17.3517
आ	-17.3517
ਿ	-17.3517
ੰ	-17.3517
న	-17.3517
ಂ	-17.3517
ස	-17.3517
င	-17.3517
တ	-17.3517
ስ	-17.3517
ព	-17.3517
ḻ	-17.3517
げ	-17.3517
	-17.3517
©	-17.3517
ŗ	-17.3517
ȟ	-17.3517
ɰ	-17.3517
˧	-17.3517
̧	-17.3517
ѝ	-17.3517
ң	-17.3517
ҳ	-17.3517
՛	-17.3517
փ	-17.3517
ܚ	-17.3517
ܥ	-17.3517
ড	-17.3517
ৰ	-17.3517
ழ	-17.3517
ం	-17.3517
జ	-17.3517
త	-17.3517
ಟ	-17.3517
ಣ	-17.3517
ಮ	-17.3517
ක	-17.3517
ම	-17.3517
ཁ	-17.3517
ྱ	-17.3517
ረ	-17.3517
ባ	-17.3517
ገ	-17.3517
អ	-17.3517
ḵ	-17.3517
ề	-17.3517
ợ	-17.3517
ụ	-17.3517
ỹ	-17.3517
ὤ	-17.3517
ὴ	-17.3517
↵	-17.3517
≃	-17.3517
⊢	-17.3517
『	-17.3517
ぬ	-17.3517
丈	-17.3517
与	-17.3517
个	-17.3517
久	-17.3517
亜	-17.3517
介	-17.3517
以	-17.3517
件	-17.3517
來	-17.3517
俺	-17.3517
倫	-17.3517
億	-17.3517
克	-17.3517
児	-17.3517
兒	-17.3517
刻	-17.3517
則	-17.3517
助	-17.3517
勤	-17.3517
卓	-17.3517
卫	-17.3517
及	-17.3517
发	-17.3517
叔	-17.3517
受	-17.3517
吾	-17.3517
呂	-17.3517
哈	-17.3517
喜	-17.3517
団	-17.3517
垣	-17.3517
堀	-17.3517
夕	-17.3517
头	-17.3517
奏	-17.3517
奥	-17.3517
姫	-17.3517
娘	-17.3517
孔	-17.3517
孤	-17.3517
守	-17.3517
宣	-17.3517
寿	-17.3517
尉	-17.3517
對	-17.3517
屋	-17.3517
巫	-17.3517
巳	-17.3517
庭	-17.3517
延	-17.3517
弓	-17.3517
形	-17.3517
後	-17.3517
快	-17.3517
恵	-17.3517
悪	-17.3517
战	-17.3517
攻	-17.3517
斎	-17.3517
料	-17.3517
昆	-17.3517
昭	-17.3517
晓	-17.3517
晴	-17.3517
晶	-17.3517
暴	-17.3517
极	-17.3517
核	-17.3517
格	-17.3517
桥	-17.3517
梅	-17.3517
梨	-17.3517
榜	-17.3517
横	-17.3517
欧	-17.3517
池	-17.3517
決	-17.3517
汽	-17.3517
油	-17.3517
泗	-17.3517
洞	-17.3517
浦	-17.3517
湾	-17.3517
溪	-17.3517
煙	-17.3517
照	-17.3517
犬	-17.3517
狗	-17.3517
獄	-17.3517
現	-17.3517
琴	-17.3517
環	-17.3517
番	-17.3517
眼	-17.3517
矢	-17.3517
破	-17.3517
碁	-17.3517
示	-17.3517
祝	-17.3517
祭	-17.3517
私	-17.3517
究	-17.3517
結	-17.3517
線	-17.3517
織	-17.3517
绥	-17.3517
网	-17.3517
翼	-17.3517
聂	-17.3517
聞	-17.3517
致	-17.3517
舌	-17.3517
艺	-17.3517
苗	-17.3517
荒	-17.3517
莊	-17.3517
菀	-17.3517
落	-17.3517
薇	-17.3517
虎	-17.3517
號	-17.3517
虫	-17.3517
装	-17.3517
親	-17.3517
観	-17.3517
观	-17.3517
视	-17.3517
訓	-17.3517
設	-17.3517
论	-17.3517
语	-17.3517
豆	-17.3517
輪	-17.3517
这	-17.3517
远	-17.3517
连	-17.3517
追	-17.3517
造	-17.3517
連	-17.3517
邦	-17.3517
郷	-17.3517
酷	-17.3517
鉴	-17.3517
録	-17.3517
鑑	-17.3517
間	-17.3517
閣	-17.3517
际	-17.3517
雀	-17.3517
霜	-17.3517
霞	-17.3517
順	-17.3517
顔	-17.3517
願	-17.3517
顯	-17.3517
飲	-17.3517
騎	-17.3517
马	-17.3517
魏	-17.3517
魚	-17.3517
黎	-17.3517
齊	-17.3517
ꙋ	-17.3517
ꜥ	-17.3517
드	-17.3517
려	-17.3517
릉	-17.3517
말	-17.3517
반	-17.3517
방	-17.3517
법	-17.3517
생	-17.3517
석	-17.3517
순	-17.3517
승	-17.3517
야	-17.3517
엔	-17.3517
운	-17.3517
울	-17.3517
음	-17.3517
적	-17.3517
청	-17.3517
치	-17.3517
크	-17.3517
투	-17.3517
홍	-17.3517
️	-17.3517
𐤁	-17.3517
𐤂	-17.3517
𐤕	-17.3517
ғ	-17.3517
ә	-17.3517
യ	-17.3517
ீ	-17.3517
ហ	-17.3517
ೆ	-17.3517
ⵎ	-17.3517
ۇ	-17.6017
ภ	-17.6017
ိ	-17.6017
འ	-17.6017
ჭ	-17.6017
ӧ	-17.6017
ጰ	-17.6017
ṓ	-17.6017
	-17.6017
	-17.6017
	-17.6017
ƃ	-17.6017
ɖ	-17.6017
ɘ	-17.6017
ɟ	-17.6017
ɤ	-17.6017
ɥ	-17.6017
˨	-17.6017
̅	-17.6017
̍	-17.6017
ԫ	-17.6017
ٹ	-17.6017
ڭ	-17.6017
ھ	-17.6017
ے	-17.6017
ܫ	-17.6017
ः	-17.6017
ई	-17.6017
फ	-17.6017
ণ	-17.6017
ਜ	-17.6017
ਤ	-17.6017
ਦ	-17.6017
ங	-17.6017
ತ	-17.6017
ನ	-17.6017
ಸ	-17.6017
ೀ	-17.6017
ബ	-17.6017
ള	-17.6017
ප	-17.6017
ි	-17.6017
ී	-17.6017
ถ	-17.6017
ผ	-17.6017
ษ	-17.6017
ှ	-17.6017
ზ	-17.6017
ያ	-17.6017
ፀ	-17.6017
ḳ	-17.6017
ṉ	-17.6017
ṕ	-17.6017
ử	-17.6017
ὖ	-17.6017
ῷ	-17.6017
‛	-17.6017
₡	-17.6017
₹	-17.6017
⊂	-17.6017
⎯	-17.6017
█	-17.6017
ⲣ	-17.6017
ⵏ	-17.6017
ⵙ	-17.6017
』	-17.6017
ざ	-17.6017
ほ	-17.6017
ヶ	-17.6017
业	-17.6017
两	-17.6017
丸	-17.6017
为	-17.6017
义	-17.6017
也	-17.6017
争	-17.6017
交	-17.6017
亭	-17.6017
份	-17.6017
休	-17.6017
伟	-17.6017
伴	-17.6017
侍	-17.6017
個	-17.6017
備	-17.6017
優	-17.6017
兄	-17.6017
兆	-17.6017
入	-17.6017
凌	-17.6017
凡	-17.6017
刊	-17.6017
刑	-17.6017
剛	-17.6017
卜	-17.6017
厦	-17.6017
厳	-17.6017
右	-17.6017
各	-17.6017
听	-17.6017
吹	-17.6017
员	-17.6017
品	-17.6017
問	-17.6017
回	-17.6017
围	-17.6017
團	-17.6017
坐	-17.6017
塊	-17.6017
境	-17.6017
壽	-17.6017
契	-17.6017
妙	-17.6017
妻	-17.6017
姬	-17.6017
婦	-17.6017
孟	-17.6017
季	-17.6017
完	-17.6017
宙	-17.6017
客	-17.6017
容	-17.6017
宿	-17.6017
対	-17.6017
尋	-17.6017
就	-17.6017
尼	-17.6017
峡	-17.6017
崇	-17.6017
嵊	-17.6017
已	-17.6017
师	-17.6017
帯	-17.6017
幹	-17.6017
广	-17.6017
広	-17.6017
序	-17.6017
庫	-17.6017
廟	-17.6017
廷	-17.6017
弘	-17.6017
弟	-17.6017
归	-17.6017
彦	-17.6017
役	-17.6017
律	-17.6017
復	-17.6017
怒	-17.6017
怪	-17.6017
恐	-17.6017
恭	-17.6017
感	-17.6017
憲	-17.6017
懸	-17.6017
戌	-17.6017
戒	-17.6017
戰	-17.6017
揚	-17.6017
摩	-17.6017
撃	-17.6017
撲	-17.6017
断	-17.6017
旅	-17.6017
早	-17.6017
时	-17.6017
晋	-17.6017
曜	-17.6017
权	-17.6017
根	-17.6017
業	-17.6017
權	-17.6017
欢	-17.6017
殺	-17.6017
求	-17.6017
汇	-17.6017
沖	-17.6017
泥	-17.6017
浮	-17.6017
満	-17.6017
潘	-17.6017
潮	-17.6017
澄	-17.6017
爆	-17.6017
爸	-17.6017
爾	-17.6017
猴	-17.6017
獎	-17.6017
用	-17.6017
甫	-17.6017
疆	-17.6017
盤	-17.6017
督	-17.6017
短	-17.6017
砂	-17.6017
碑	-17.6017
碧	-17.6017
磁	-17.6017
祈	-17.6017
祐	-17.6017
禪	-17.6017
管	-17.6017
箱	-17.6017
範	-17.6017
糖	-17.6017
系	-17.6017
紙	-17.6017
級	-17.6017
細	-17.6017
終	-17.6017
絡	-17.6017
綾	-17.6017
総	-17.6017
緒	-17.6017
级	-17.6017
统	-17.6017
罔	-17.6017
置	-17.6017
考	-17.6017
联	-17.6017
肖	-17.6017
股	-17.6017
興	-17.6017
般	-17.6017
船	-17.6017
艸	-17.6017
荣	-17.6017
葛	-17.6017
蔵	-17.6017
藩	-17.6017
虚	-17.6017
虛	-17.6017
蛇	-17.6017
蛮	-17.6017
蜂	-17.6017
表	-17.6017
袁	-17.6017
袋	-17.6017
補	-17.6017
談	-17.6017
謝	-17.6017
謡	-17.6017
设	-17.6017
说	-17.6017
豊	-17.6017
財	-17.6017
賢	-17.6017
軌	-17.6017
辵	-17.6017
运	-17.6017
近	-17.6017
退	-17.6017
送	-17.6017
逸	-17.6017
遥	-17.6017
適	-17.6017
邑	-17.6017
邱	-17.6017
郑	-17.6017
郭	-17.6017
酉	-17.6017
醒	-17.6017
采	-17.6017
鉄	-17.6017
鉱	-17.6017
銅	-17.6017
鋼	-17.6017
錢	-17.6017
鏡	-17.6017
陰	-17.6017
隶	-17.6017
隼	-17.6017
雉	-17.6017
零	-17.6017
霊	-17.6017
霸	-17.6017
韭	-17.6017
響	-17.6017
頁	-17.6017
飞	-17.6017
飯	-17.6017
馮	-17.6017
魯	-17.6017
鱼	-17.6017
鲁	-17.6017
鳥	-17.6017
鳴	-17.6017
黙	-17.6017
龢	-17.6017
광	-17.6017
까	-17.6017
데	-17.6017
모	-17.6017
발	-17.6017
밥	-17.6017
범	-17.6017
본	-17.6017
브	-17.6017
설	-17.6017
엄	-17.6017
용	-17.6017
웅	-17.6017
중	-17.6017
차	-17.6017
철	-17.6017
추	-17.6017
터	-17.6017
풍	-17.6017
향	-17.6017
혼	-17.6017
후	-17.6017
희	-17.6017
𐤏	-17.6017
𐤓	-17.6017
ɢ	-17.6017
ஷ	-17.6017
ಯ	-17.6017
ച	-17.6017
ላ	-17.6017
ῴ	-17.6017
ゲ	-17.6017
ಳ	-17.6017
ീ	-17.6017
ᑦ	-17.6017
ẵ	-17.6017
ヨ	-17.6017
ಗ	-17.6017
ປ	-17.935
ຊ	-17.935
ǀ	-17.935
ǁ	-17.935
ʢ	-17.935
ढ	-17.935
ર	-17.935
ద	-17.935
ො	-17.935
ླ	-17.935
ぼ	-17.935
	-17.935
ƶ	-17.935
ǂ	-17.935
ȣ	-17.935
ɓ	-17.935
ɚ	-17.935
ɭ	-17.935
ɴ	-17.935
ɸ	-17.935
ʽ	-17.935
ˇ	-17.935
ˉ	-17.935
˕	-17.935
ͻ	-17.935
ϛ	-17.935
ϝ	-17.935
ϧ	-17.935
ѧ	-17.935
ӓ	-17.935
ձ	-17.935
ܦ	-17.935
ँ	-17.935
ऋ	-17.935
খ	-17.935
ੇ	-17.935
િ	-17.935
ର	-17.935
ஃ	-17.935
௫	-17.935
అ	-17.935
ట	-17.935
ణ	-17.935
ష	-17.935
స	-17.935
ಷ	-17.935
ദ	-17.935
റ	-17.935
ൂ	-17.935
െ	-17.935
බ	-17.935
ව	-17.935
හ	-17.935
๊	-17.935
ພ	-17.935
ວ	-17.935
།	-17.935
ཞ	-17.935
ྗ	-17.935
ྭ	-17.935
ထ	-17.935
လ	-17.935
ါ	-17.935
ီ	-17.935
ᄇ	-17.935
ል	-17.935
ራ	-17.935
በ	-17.935
ዲ	-17.935
ድ	-17.935
ግ	-17.935
ፐ	-17.935
ᖿ	-17.935
េ	-17.935
ᵻ	-17.935
ḱ	-17.935
ẏ	-17.935
ᾰ	-17.935
⁠	-17.935
₧	-17.935
₪	-17.935
↓	-17.935
∅	-17.935
∆	-17.935
∇	-17.935
∘	-17.935
∫	-17.935
∶	-17.935
∼	-17.935
≅	-17.935
■	-17.935
○	-17.935
♮	-17.935
❤	-17.935
ⲟ	-17.935
ⲡ	-17.935
ⵉ	-17.935
々	-17.935
ぞ	-17.935
む	-17.935
両	-17.935
么	-17.935
乏	-17.935
乞	-17.935
乡	-17.935
乱	-17.935
乳	-17.935
予	-17.935
互	-17.935
亚	-17.935
些	-17.935
亞	-17.935
亮	-17.935
他	-17.935
付	-17.935
令	-17.935
伽	-17.935
佑	-17.935
供	-17.935
俣	-17.935
俳	-17.935
偉	-17.935
偽	-17.935
傳	-17.935
傷	-17.935
僕	-17.935
养	-17.935
冒	-17.935
冠	-17.935
冯	-17.935
冰	-17.935
凛	-17.935
凰	-17.935
列	-17.935
判	-17.935
剑	-17.935
剧	-17.935
功	-17.935
努	-17.935
匹	-17.935
医	-17.935
卵	-17.935
反	-17.935
只	-17.935
吐	-17.935
告	-17.935
呪	-17.935
味	-17.935
咲	-17.935
哉	-17.935
哲	-17.935
唯	-17.935
啇	-17.935
営	-17.935
嘚	-17.935
嚴	-17.935
囚	-17.935
囲	-17.935
固	-17.935
坊	-17.935
坡	-17.935
坤	-17.935
堅	-17.935
塚	-17.935
増	-17.935
壓	-17.935
奄	-17.935
奉	-17.935
奖	-17.935
妤	-17.935
妹	-17.935
姐	-17.935
姜	-17.935
姻	-17.935
嫡	-17.935
宁	-17.935
宏	-17.935
宫	-17.935
宵	-17.935
寄	-17.935
寅	-17.935
寒	-17.935
寛	-17.935
察	-17.935
實	-17.935
封	-17.935
将	-17.935
尊	-17.935
尺	-17.935
屈	-17.935
届	-17.935
展	-17.935
層	-17.935
履	-17.935
屯	-17.935
岁	-17.935
岐	-17.935
岭	-17.935
崩	-17.935
嵐	-17.935
嶋	-17.935
巧	-17.935
巨	-17.935
席	-17.935
幣	-17.935
干	-17.935
库	-17.935
庙	-17.935
廠	-17.935
強	-17.935
彌	-17.935
彩	-17.935
微	-17.935
徳	-17.935
必	-17.935
忘	-17.935
急	-17.935
性	-17.935
怨	-17.935
总	-17.935
悟	-17.935
惑	-17.935
慈	-17.935
慕	-17.935
慶	-17.935
憾	-17.935
懿	-17.935
戯	-17.935
扶	-17.935
把	-17.935
抜	-17.935
抱	-17.935
拘	-17.935
挑	-17.935
捕	-17.935
捨	-17.935
控	-17.935
提	-17.935
摂	-17.935
操	-17.935
救	-17.935
数	-17.935
斉	-17.935
旬	-17.935
昇	-17.935
昌	-17.935
智	-17.935
暗	-17.935
暮	-17.935
曓	-17.935
服	-17.935
板	-17.935
枝	-17.935
柱	-17.935
査	-17.935
栗	-17.935
桓	-17.935
梁	-17.935
梓	-17.935
條	-17.935
棍	-17.935
棺	-17.935
楚	-17.935
楼	-17.935
榊	-17.935
様	-17.935
模	-17.935
檀	-17.935
欺	-17.935
止	-17.935
此	-17.935
歳	-17.935
殖	-17.935
殘	-17.935
毅	-17.935
汝	-17.935
汪	-17.935
沼	-17.935
注	-17.935
泽	-17.935
浏	-17.935
浙	-17.935
浜	-17.935
浴	-17.935
淵	-17.935
添	-17.935
温	-17.935
源	-17.935
準	-17.935
溝	-17.935
滿	-17.935
激	-17.935
濱	-17.935
灣	-17.935
灯	-17.935
灰	-17.935
炮	-17.935
為	-17.935
烈	-17.935
焦	-17.935
焼	-17.935
煮	-17.935
熙	-17.935
營	-17.935
片	-17.935
獣	-17.935
玗	-17.935
玛	-17.935
珍	-17.935
琳	-17.935
瑞	-17.935
瓦	-17.935
産	-17.935
畅	-17.935
留	-17.935
異	-17.935
病	-17.935
痛	-17.935
發	-17.935
皮	-17.935
益	-17.935
盘	-17.935
盟	-17.935
着	-17.935
瞿	-17.935
硬	-17.935
磨	-17.935
礼	-17.935
禅	-17.935
秘	-17.935
種	-17.935
穆	-17.935
積	-17.935
站	-17.935
竜	-17.935
竞	-17.935
童	-17.935
符	-17.935
篇	-17.935
类	-17.935
紂	-17.935
紋	-17.935
納	-17.935
紗	-17.935
絵	-17.935
綱	-17.935
網	-17.935
纳	-17.935
罗	-17.935
罪	-17.935
署	-17.935
群	-17.935
翁	-17.935
耕	-17.935
耶	-17.935
聲	-17.935
肉	-17.935
肌	-17.935
肥	-17.935
肯	-17.935
背	-17.935
腐	-17.935
腾	-17.935
臼	-17.935
舉	-17.935
舎	-17.935
舛	-17.935
艮	-17.935
芥	-17.935
芳	-17.935
苦	-17.935
茂	-17.935
茅	-17.935
荷	-17.935
萨	-17.935
著	-17.935
葵	-17.935
蒋	-17.935
蒼	-17.935
薩	-17.935
薫	-17.935
薰	-17.935
虍	-17.935
虐	-17.935
蛙	-17.935
蜜	-17.935
蜩	-17.935
衆	-17.935
被	-17.935
襾	-17.935
覚	-17.935
詞	-17.935
調	-17.935
識	-17.935
譲	-17.935
讓	-17.935
计	-17.935
许	-17.935
译	-17.935
豕	-17.935
豬	-17.935
豸	-17.935
豹	-17.935
販	-17.935
貫	-17.935
賞	-17.935
賴	-17.935
購	-17.935
贝	-17.935
赛	-17.935
赵	-17.935
趙	-17.935
跆	-17.935
跟	-17.935
跳	-17.935
転	-17.935
軽	-17.935
輝	-17.935
輯	-17.935
轄	-17.935
辉	-17.935
辺	-17.935
迎	-17.935
返	-17.935
进	-17.935
迪	-17.935
迫	-17.935
逆	-17.935
遇	-17.935
遷	-17.935
邪	-17.935
鄧	-17.935
鄭	-17.935
配	-17.935
醜	-17.935
釆	-17.935
鈴	-17.935
鍋	-17.935
鎖	-17.935
鎮	-17.935
鐘	-17.935
钱	-17.935
閉	-17.935
閑	-17.935
阜	-17.935
陛	-17.935
隞	-17.935
隹	-17.935
难	-17.935
雙	-17.935
離	-17.935
霍	-17.935
霖	-17.935
露	-17.935
靈	-17.935
靖	-17.935
韋	-17.935
韩	-17.935
韵	-17.935
韻	-17.935
頌	-17.935
頼	-17.935
飢	-17.935
飼	-17.935
養	-17.935
饒	-17.935
馨	-17.935
骨	-17.935
鲜	-17.935
鵬	-17.935
鶴	-17.935
麦	-17.935
黨	-17.935
鼓	-17.935
鼠	-17.935
龄	-17.935
갸	-17.935
곡	-17.935
골	-17.935
궤	-17.935
글	-17.935
금	-17.935
꽃	-17.935
날	-17.935
남	-17.935
너	-17.935
녀	-17.935
노	-17.935
돌	-17.935
력	-17.935
례	-17.935
론	-17.935
룹	-17.935
매	-17.935
먼	-17.935
면	-17.935
묘	-17.935
벌	-17.935
새	-17.935
손	-17.935
송	-17.935
술	-17.935
습	-17.935
씨	-17.935
악	-17.935
알	-17.935
암	-17.935
익	-17.935
족	-17.935
찬	-17.935
책	-17.935
체	-17.935
축	-17.935
코	-17.935
키	-17.935
티	-17.935
포	-17.935
풀	-17.935
프	-17.935
함	-17.935
훈	-17.935
흥	-17.935
	-17.935
𐤄	-17.935
𐤊	-17.935
డ	-17.935
ぽ	-17.935
ګ	-17.935
ਨ	-17.935
ெ	-17.935
శ	-17.935
ซ	-17.935
គ	-17.935
ង	-17.935
ḡ	-17.935
ῃ	-17.935
ਕ	-17.935
ც	-17.935
វ	-17.935
ἤ	-17.935
ⵔ	-17.935
ܛ	-17.935
ಡ	-17.935
ល	-17.935
ທ	-18.435
ۋ	-18.435
ჩ	-18.435
ভ	-18.435
ฐ	-18.435
ំ	-18.435
ペ	-18.435
ǹ	-18.435
ѐ	-18.435
ই	-18.435
బ	-18.435
మ	-18.435
ဆ	-18.435
ḿ	-18.435
ⱶ	-18.435
ใ	-18.435
Q	-18.435
	-18.435
¶	-18.435
į	-18.435
ǃ	-18.435
ȳ	-18.435
ɞ	-18.435
ɫ	-18.435
ɵ	-18.435
ʝ	-18.435
ʤ	-18.435
ʦ	-18.435
˔	-18.435
˭	-18.435
˯	-18.435
˰	-18.435
̉	-18.435
̡	-18.435
̢	-18.435
̰	-18.435
̽	-18.435
͍	-18.435
͵	-18.435
ϙ	-18.435
ѕ	-18.435
ѡ	-18.435
ѳ	-18.435
ѹ	-18.435
ӏ	-18.435
ջ	-18.435
֔	-18.435
־	-18.435
װ	-18.435
״	-18.435
ٔ	-18.435
٫	-18.435
ٴ	-18.435
ڄ	-18.435
ڈ	-18.435
ں	-18.435
ۈ	-18.435
ܙ	-18.435
ܠ	-18.435
ܩ	-18.435
ܸ	-18.435
औ	-18.435
ौ	-18.435
॥	-18.435
অ	-18.435
এ	-18.435
ও	-18.435
ঙ	-18.435
ছ	-18.435
ষ	-18.435
ৱ	-18.435
ਗ	-18.435
ਘ	-18.435
ਬ	-18.435
ਹ	-18.435
ੱ	-18.435
જ	-18.435
ા	-18.435
ે	-18.435
ો	-18.435
્	-18.435
ତ	-18.435
ନ	-18.435
ା	-18.435
୍	-18.435
இ	-18.435
ஈ	-18.435
ஸ	-18.435
ஹ	-18.435
ఖ	-18.435
ీ	-18.435
ు	-18.435
ూ	-18.435
ృ	-18.435
ೃ	-18.435
ೈ	-18.435
ം	-18.435
ഐ	-18.435
ഗ	-18.435
ട	-18.435
ണ	-18.435
ധ	-18.435
ഴ	-18.435
ൃ	-18.435
ං	-18.435
ග	-18.435
ඩ	-18.435
ද	-18.435
ැ	-18.435
ກ	-18.435
ງ	-18.435
ຕ	-18.435
ອ	-18.435
ັ	-18.435
ື	-18.435
ໂ	-18.435
ཆ	-18.435
ཚ	-18.435
ཤ	-18.435
ྒ	-18.435
ྟ	-18.435
ྤ	-18.435
ྫ	-18.435
ྷ	-18.435
ည	-18.435
္	-18.435
ሰ	-18.435
ቀ	-18.435
ቡ	-18.435
ተ	-18.435
ነ	-18.435
ን	-18.435
ኢ	-18.435
ኤ	-18.435
የ	-18.435
ይ	-18.435
ጌ	-18.435
ፍ	-18.435
፩	-18.435
ᐃ	-18.435
ᐧ	-18.435
ᓄ	-18.435
ᓱ	-18.435
ᖅ	-18.435
ᖽ	-18.435
ដ	-18.435
ថ	-18.435
ូ	-18.435
ោ	-18.435
ᠠ	-18.435
ᠨ	-18.435
ᡧ	-18.435
ᡳ	-18.435
ᡴ	-18.435
ᨦ	-18.435
ᨿ	-18.435
᩠	-18.435
ᵹ	-18.435
ḩ	-18.435
ṁ	-18.435
ṗ	-18.435
ẩ	-18.435
ằ	-18.435
ặ	-18.435
ẻ	-18.435
ể	-18.435
ἓ	-18.435
ἢ	-18.435
ἣ	-18.435
ἧ	-18.435
ἳ	-18.435
ὒ	-18.435
ὡ	-18.435
ὥ	-18.435
ὼ	-18.435
ᾳ	-18.435
ῇ	-18.435
‟	-18.435
‡	-18.435
⁊	-18.435
₽	-18.435
℧	-18.435
↦	-18.435
∨	-18.435
∩	-18.435
≒	-18.435
►	-18.435
◌	-18.435
☰	-18.435
♕	-18.435
♩	-18.435
⠑	-18.435
⠺	-18.435
ⴳ	-18.435
ⴷ	-18.435
ⵍ	-18.435
ⵛ	-18.435
ⵣ	-18.435
〇	-18.435
〈	-18.435
〉	-18.435
ぃ	-18.435
ぱ	-18.435
ゎ	-18.435
ゑ	-18.435
゙	-18.435
゚	-18.435
ゾ	-18.435
ヮ	-18.435
ㄅ	-18.435
ㄐ	-18.435
ㄧ	-18.435
ㄩ	-18.435
丑	-18.435
丘	-18.435
丝	-18.435
乌	-18.435
乔	-18.435
买	-18.435
乾	-18.435
亂	-18.435
亨	-18.435
享	-18.435
亲	-18.435
亶	-18.435
亽	-18.435
仌	-18.435
仏	-18.435
仔	-18.435
仕	-18.435
仰	-18.435
伍	-18.435
伎	-18.435
传	-18.435
伸	-18.435
住	-18.435
例	-18.435
依	-18.435
俞	-18.435
俱	-18.435
倉	-18.435
倍	-18.435
們	-18.435
倒	-18.435
候	-18.435
側	-18.435
傑	-18.435
僊	-18.435
像	-18.435
儒	-18.435
允	-18.435
免	-18.435
兰	-18.435
兼	-18.435
再	-18.435
写	-18.435
军	-18.435
冷	-18.435
准	-18.435
凉	-18.435
凤	-18.435
凱	-18.435
刃	-18.435
劍	-18.435
励	-18.435
劳	-18.435
勅	-18.435
勺	-18.435
匁	-18.435
匙	-18.435
匯	-18.435
午	-18.435
卍	-18.435
卒	-18.435
单	-18.435
卦	-18.435
危	-18.435
历	-18.435
厘	-18.435
参	-18.435
又	-18.435
叉	-18.435
句	-18.435
召	-18.435
吏	-18.435
吙	-18.435
吟	-18.435
吠	-18.435
呈	-18.435
哀	-18.435
哥	-18.435
啓	-18.435
啝	-18.435
啼	-18.435
喀	-18.435
喝	-18.435
噗	-18.435
図	-18.435
图	-18.435
圍	-18.435
圏	-18.435
圧	-18.435
均	-18.435
垂	-18.435
埔	-18.435
域	-18.435
埼	-18.435
堕	-18.435
塞	-18.435
塾	-18.435
墾	-18.435
壊	-18.435
壱	-18.435
売	-18.435
変	-18.435
失	-18.435
奘	-18.435
奴	-18.435
妖	-18.435
姓	-18.435
娃	-18.435
娜	-18.435
婚	-18.435
嬢	-18.435
存	-18.435
孝	-18.435
宋	-18.435
宜	-18.435
寂	-18.435
寸	-18.435
専	-18.435
將	-18.435
專	-18.435
導	-18.435
尹	-18.435
尽	-18.435
屬	-18.435
岚	-18.435
崔	-18.435
崽	-18.435
巣	-18.435
巻	-18.435
帆	-18.435
帖	-18.435
帳	-18.435
幌	-18.435
幫	-18.435
幻	-18.435
幽	-18.435
庆	-18.435
庐	-18.435
庵	-18.435
庶	-18.435
廹	-18.435
开	-18.435
弦	-18.435
弧	-18.435
弱	-18.435
强	-18.435
弾	-18.435
彤	-18.435
彬	-18.435
彭	-18.435
彰	-18.435
往	-18.435
待	-18.435
徒	-18.435
従	-18.435
忌	-18.435
怀	-18.435
怕	-18.435
悠	-18.435
悬	-18.435
愚	-18.435
態	-18.435
慎	-18.435
慰	-18.435
憶	-18.435
懂	-18.435
應	-18.435
戀	-18.435
戈	-18.435
戏	-18.435
戔	-18.435
戴	-18.435
户	-18.435
扇	-18.435
払	-18.435
护	-18.435
报	-18.435
拍	-18.435
拐	-18.435
招	-18.435
拝	-18.435
拠	-18.435
挂	-18.435
指	-18.435
挙	-18.435
捜	-18.435
捻	-18.435
掌	-18.435
掛	-18.435
接	-18.435
推	-18.435
携	-18.435
撒	-18.435
播	-18.435
擁	-18.435
擦	-18.435
改	-18.435
故	-18.435
敏	-18.435
敖	-18.435
整	-18.435
敵	-18.435
敷	-18.435
斌	-18.435
旋	-18.435
旦	-18.435
旧	-18.435
旭	-18.435
显	-18.435
晃	-18.435
暁	-18.435
暑	-18.435
暫	-18.435
曦	-18.435
曰	-18.435
曼	-18.435
朋	-18.435
朕	-18.435
朢	-18.435
末	-18.435
杀	-18.435
束	-18.435
杭	-18.435
杰	-18.435
析	-18.435
枚	-18.435
枢	-18.435
柄	-18.435
某	-18.435
查	-18.435
柵	-18.435
栄	-18.435
栞	-18.435
样	-18.435
桂	-18.435
案	-18.435
桑	-18.435
桜	-18.435
梧	-18.435
棟	-18.435
植	-18.435
榕	-18.435
槇	-18.435
構	-18.435
槍	-18.435
樓	-18.435
標	-18.435
樺	-18.435
欄	-18.435
欣	-18.435
歩	-18.435
歯	-18.435
殉	-18.435
每	-18.435
汗	-18.435
汶	-18.435
沁	-18.435
沟	-18.435
沪	-18.435
沿	-18.435
泡	-18.435
泳	-18.435
洛	-18.435
派	-18.435
济	-18.435
涯	-18.435
淡	-18.435
混	-18.435
渕	-18.435
渚	-18.435
測	-18.435
渴	-18.435
溫	-18.435
溶	-18.435
滇	-18.435
滨	-18.435
漁	-18.435
漏	-18.435
潛	-18.435
潟	-18.435
潤	-18.435
濃	-18.435
瀚	-18.435
炎	-18.435
炭	-18.435
烏	-18.435
热	-18.435
熟	-18.435
燈	-18.435
爭	-18.435
爵	-18.435
犯	-18.435
狄	-18.435
狩	-18.435
狱	-18.435
猛	-18.435
獅	-18.435
獨	-18.435
率	-18.435
班	-18.435
琦	-18.435
琼	-18.435
琾	-18.435
瑛	-18.435
瑟	-18.435
瓜	-18.435
畑	-18.435
略	-18.435
畵	-18.435
症	-18.435
癖	-18.435
皆	-18.435
皿	-18.435
监	-18.435
盡	-18.435
盧	-18.435
県	-18.435
眠	-18.435
眾	-18.435
矯	-18.435
碩	-18.435
礎	-18.435
祠	-18.435
祺	-18.435
禮	-18.435
秂	-18.435
移	-18.435
稚	-18.435
穂	-18.435
突	-18.435
窪	-18.435
端	-18.435
笙	-18.435
笛	-18.435
策	-18.435
築	-18.435
篠	-18.435
粒	-18.435
糸	-18.435
索	-18.435
絠	-18.435
給	-18.435
統	-18.435
継	-18.435
綿	-18.435
緑	-18.435
緩	-18.435
緻	-18.435
總	-18.435
繼	-18.435
给	-18.435
習	-18.435
耀	-18.435
而	-18.435
耙	-18.435
職	-18.435
肋	-18.435
胞	-18.435
胴	-18.435
脉	-18.435
脑	-18.435
脱	-18.435
脳	-18.435
脹	-18.435
腕	-18.435
腰	-18.435
臨	-18.435
臫	-18.435
舍	-18.435
艦	-18.435
艳	-18.435
艷	-18.435
艾	-18.435
芋	-18.435
芒	-18.435
芙	-18.435
芦	-18.435
芬	-18.435
芭	-18.435
芹	-18.435
荇	-18.435
荘	-18.435
莫	-18.435
莱	-18.435
菅	-18.435
菱	-18.435
萧	-18.435
萩	-18.435
葡	-18.435
蓉	-18.435
蓝	-18.435
蔣	-18.435
蕉	-18.435
蕭	-18.435
薔	-18.435
薙	-18.435
薪	-18.435
薬	-18.435
藥	-18.435
蘇	-18.435
蘱	-18.435
虜	-18.435
虞	-18.435
蝦	-18.435
蝴	-18.435
蝶	-18.435
融	-18.435
蟠	-18.435
蟹	-18.435
衊	-18.435
衡	-18.435
衰	-18.435
裁	-18.435
裏	-18.435
裸	-18.435
複	-18.435
褒	-18.435
襲	-18.435
覇	-18.435
见	-18.435
計	-18.435
討	-18.435
註	-18.435
詔	-18.435
詠	-18.435
試	-18.435
誉	-18.435
誌	-18.435
認	-18.435
誓	-18.435
誕	-18.435
誠	-18.435
諧	-18.435
謀	-18.435
謙	-18.435
講	-18.435
警	-18.435
认	-18.435
诚	-18.435
诺	-18.435
谋	-18.435
豪	-18.435
負	-18.435
貢	-18.435
貧	-18.435
貨	-18.435
買	-18.435
費	-18.435
賓	-18.435
賛	-18.435
質	-18.435
賽	-18.435
贈	-18.435
贡	-18.435
贤	-18.435
费	-18.435
赧	-18.435
赫	-18.435
赴	-18.435
跡	-18.435
践	-18.435
軸	-18.435
輩	-18.435
轮	-18.435
软	-18.435
辣	-18.435
辭	-18.435
辱	-18.435
辽	-18.435
逐	-18.435
這	-18.435
逝	-18.435
速	-18.435
逢	-18.435
遗	-18.435
遮	-18.435
遵	-18.435
遺	-18.435
遼	-18.435
鄂	-18.435
鄒	-18.435
酔	-18.435
酵	-18.435
醉	-18.435
醫	-18.435
釈	-18.435
量	-18.435
釗	-18.435
針	-18.435
銑	-18.435
銘	-18.435
銭	-18.435
錘	-18.435
錫	-18.435
錬	-18.435
镇	-18.435
閃	-18.435
閔	-18.435
间	-18.435
闻	-18.435
阝	-18.435
阮	-18.435
阴	-18.435
陀	-18.435
陆	-18.435
降	-18.435
陪	-18.435
険	-18.435
隅	-18.435
障	-18.435
隠	-18.435
隷	-18.435
隻	-18.435
雁	-18.435
雜	-18.435
難	-18.435
需	-18.435
霧	-18.435
靑	-18.435
靜	-18.435
靴	-18.435
鞏	-18.435
頂	-18.435
項	-18.435
頑	-18.435
頓	-18.435
頻	-18.435
額	-18.435
顶	-18.435
飧	-18.435
飾	-18.435
駄	-18.435
騰	-18.435
體	-18.435
髙	-18.435
魌	-18.435
魎	-18.435
魰	-18.435
鮃	-18.435
鮫	-18.435
鳳	-18.435
鵜	-18.435
鵲	-18.435
鷹	-18.435
鸣	-18.435
鹿	-18.435
默	-18.435
鼎	-18.435
鼻	-18.435
齡	-18.435
ꓡ	-18.435
ꓢ	-18.435
ꓲ	-18.435
ꓴ	-18.435
ꞌ	-18.435
ꮿ	-18.435
각	-18.435
갑	-18.435
결	-18.435
겸	-18.435
꽈	-18.435
내	-18.435
념	-18.435
녕	-18.435
눌	-18.435
뉴	-18.435
달	-18.435
두	-18.435
들	-18.435
등	-18.435
땅	-18.435
또	-18.435
똣	-18.435
람	-18.435
러	-18.435
렉	-18.435
련	-18.435
령	-18.435
록	-18.435
롱	-18.435
룡	-18.435
루	-18.435
륜	-18.435
립	-18.435
머	-18.435
멀	-18.435
물	-18.435
변	-18.435
별	-18.435
분	-18.435
븐	-18.435
살	-18.435
속	-18.435
숙	-18.435
쉽	-18.435
앗	-18.435
았	-18.435
애	-18.435
약	-18.435
언	-18.435
엇	-18.435
었	-18.435
에	-18.435
염	-18.435
엽	-18.435
외	-18.435
워	-18.435
월	-18.435
육	-18.435
임	-18.435
절	-18.435
좌	-18.435
준	-18.435
직	-18.435
집	-18.435
채	-18.435
첩	-18.435
쳐	-18.435
초	-18.435
춘	-18.435
탄	-18.435
토	-18.435
트	-18.435
틀	-18.435
팔	-18.435
패	-18.435
평	-18.435
폐	-18.435
피	-18.435
할	-18.435
행	-18.435
혁	-18.435
혈	-18.435
협	-18.435
혜	-18.435
	-18.435
	-18.435
𐤔	-18.435
👿	-18.435
􏰺	-18.435
ǽ	-18.435
ẖ	-18.435
џ	-18.435
ओ	-18.435
२	-18.435
ধ	-18.435
ஞ	-18.435
ೇ	-18.435
ሐ	-18.435
ἷ	-18.435
ῡ	-18.435
ῤ	-18.435
ڤ	-18.435
ർ	-18.435
ᖃ	-18.435
ᾱ	-18.435
ⴽ	-18.435
ಜ	-18.4351
ಬ	-18.4351
𒌈	-19.4182
𒂵	-19.4183
𒀝	-19.4184
ꮳ	-19.4185
ꮃ	-19.4186
ꭹ	-19.4187
龜	-19.4188
齐	-19.4189
齋	-19.419
麴	-19.4191
鹫	-19.4192
鹏	-19.4193
驾	-19.4194
駕	-19.4195
飒	-19.4196
鞭	-19.4197
雫	-19.4198
雖	-19.4199
锡	-19.42
钊	-19.4201
軾	-19.4202
赋	-19.4203
谥	-19.4204
譙	-19.4205
謚	-19.4206
裘	-19.4207
蠋	-19.4208
苣	-19.4209
舊	-19.421
膠	-19.4211
胶	-19.4212
聊	-19.4213
翰	-19.4214
翔	-19.4215
练	-19.4216
糟	-19.4217
笋	-19.4218
窴	-19.4219
禺	-19.422
瞻	-19.4221
皂	-19.4222
當	-19.4223
牽	-19.4224
爺	-19.4225
爷	-19.4226
煤	-19.4227
灭	-19.4228
潁	-19.4229
淮	-19.423
毫	-19.4231
毁	-19.4232
桨	-19.4233
柾	-19.4234
枪	-19.4235
朔	-19.4236
搏	-19.4237
忆	-19.4238
帮	-19.4239
巍	-19.424
嵩	-19.4241
崑	-19.4242
宀	-19.4243
孙	-19.4244
嬪	-19.4245
嫔	-19.4246
圾	-19.4247
噛	-19.4248
啤	-19.4249
咏	-19.425
厥	-19.4251
厂	-19.4252
劭	-19.4253
冢	-19.4254
冈	-19.4255
丕	-19.4256
ㄢ	-19.4257
ㄑ	-19.4258
ㄉ	-19.4259
ⵡ	-19.426
ⵟ	-19.4261
ⵃ	-19.4262
ⱓ	-19.4263
ⱌ	-19.4264
ⱆ	-19.4265
ⱁ	-19.4266
ⰻ	-19.4267
☭	-19.4268
▼	-19.4269
↘	-19.427
↗	-19.4271
ធ	-19.4272
ྩ	-19.4273
ੂ	-19.4274
ਲ	-19.4275
ਪ	-19.4276
ਥ	-19.4277
ঞ	-19.4278
ए	-19.4279
ږ	-19.428
ӕ	-19.4281
ҟ	-19.4282
҃	-19.4283
蒲	-19.4284
莴	-19.4285
琉	-19.4286
歲	-19.4287
槙	-19.4288
棉	-19.4289
嵇	-19.429
ⰾ	-19.4291
ⰳ	-19.4292
ⰰ	-19.4293
ѷ	-19.4294
	-19.4295
维	-19.4296
丶	-19.4297
ỳ	-19.4298
ἡ	-19.4299
‬	-19.43
☆	-19.4301
和	-19.4302
ὁ	-19.4303
̃	-19.4304
￼	-19.4305
N	-19.4306
^	-19.4307
±	-19.4308
̈	-19.4309
~	-19.431
−	-19.4311
{	-19.4312
}	-19.4313
€	-19.4314
·	-19.4315
×	-19.4316
*	-19.4317
―	-19.4318
́	-19.4319
¡	-19.432
#	-19.4321
¿	-19.4322
|	-19.4323
‘	-19.4324
+	-19.4325
?	-19.4326
<	-19.4327
>	-19.4328
’	-19.4329
!	-19.433
$	-19.4331
°	-19.4332
_	-19.4333
–	-19.4334
[	-19.4335
]	-19.4336
—	-19.4337
”	-19.4338
“	-19.4339
\	-19.434
/	-19.4341
»	-19.4342
«	-19.4343
;	-19.4344
:	-19.4345
%	-19.4346
=	-19.4347
(	-19.4348
)	-19.4349
&	-19.435
ܼ	-19.435
ິ	-19.435
ჴ	-19.435
ទ	-19.435
ˆ	-19.435
ѩ	-19.435
ॉ	-19.435
ਛ	-19.435
ੁ	-19.435
અ	-19.435
મ	-19.435
గ	-19.435
ో	-19.435
ശ	-19.435
ට	-19.435
ቲ	-19.435
ክ	-19.435
ᴉ	-19.435
ᾔ	-19.435
ƿ	-19.435
ཊ	-19.435
ṷ	-19.435
I	-19.435
	-19.435
	-19.435
ƕ	-19.435
ƭ	-19.435
ǘ	-19.435
ǰ	-19.435
ȯ	-19.435
ȷ	-19.435
ɗ	-19.435
ɝ	-19.435
ɩ	-19.435
ɶ	-19.435
ɺ	-19.435
ʟ	-19.435
ʨ	-19.435
˥	-19.435
˩	-19.435
̋	-19.435
̔	-19.435
̘	-19.435
̜	-19.435
̨	-19.435
̬	-19.435
̲	-19.435
̹	-19.435
̺	-19.435
͜	-19.435
ͼ	-19.435
ϡ	-19.435
ϥ	-19.435
ϭ	-19.435
ϯ	-19.435
ѓ	-19.435
ќ	-19.435
ѯ	-19.435
ѵ	-19.435
ҕ	-19.435
՜	-19.435
ֆ	-19.435
֗	-19.435
؛	-19.435
؟	-19.435
ٕ	-19.435
٭	-19.435
ٰ	-19.435
ټ	-19.435
ۄ	-19.435
ێ	-19.435
۱	-19.435
ܨ	-19.435
ܲ	-19.435
ܹ	-19.435
ݣ	-19.435
ݧ	-19.435
ݭ	-19.435
उ	-19.435
ऊ	-19.435
छ	-19.435
झ	-19.435
ञ	-19.435
ठ	-19.435
ळ	-19.435
ॊ	-19.435
७	-19.435
উ	-19.435
ঘ	-19.435
ঝ	-19.435
ঢ	-19.435
থ	-19.435
ূ	-19.435
ৃ	-19.435
৬	-19.435
৭	-19.435
ਇ	-19.435
ਟ	-19.435
ਡ	-19.435
ਣ	-19.435
ਭ	-19.435
ਵ	-19.435
਼	-19.435
ੋ	-19.435
੍	-19.435
ੜ	-19.435
ગ	-19.435
ત	-19.435
ન	-19.435
પ	-19.435
ભ	-19.435
ય	-19.435
વ	-19.435
સ	-19.435
ી	-19.435
କ	-19.435
ଵ	-19.435
ଶ	-19.435
ୀ	-19.435
ୟ	-19.435
ஆ	-19.435
எ	-19.435
ஏ	-19.435
ற	-19.435
ఆ	-19.435
ఈ	-19.435
ఎ	-19.435
హ	-19.435
ే	-19.435
ಉ	-19.435
ಐ	-19.435
ಚ	-19.435
ಞ	-19.435
ಥ	-19.435
ಶ	-19.435
ೂ	-19.435
ೋ	-19.435
അ	-19.435
ആ	-19.435
എ	-19.435
ഖ	-19.435
ഞ	-19.435
ഷ	-19.435
ഹ	-19.435
േ	-19.435
ൈ	-19.435
ോ	-19.435
ൺ	-19.435
ൻ	-19.435
ൽ	-19.435
ඌ	-19.435
ශ	-19.435
ෂ	-19.435
ළ	-19.435
ෙ	-19.435
ฎ	-19.435
ฤ	-19.435
ๅ	-19.435
๏	-19.435
๑	-19.435
ຄ	-19.435
ດ	-19.435
ມ	-19.435
ຫ	-19.435
ຶ	-19.435
ຸ	-19.435
ູ	-19.435
ົ	-19.435
ເ	-19.435
ໄ	-19.435
້	-19.435
ཀ	-19.435
ཅ	-19.435
ཇ	-19.435
ཌ	-19.435
པ	-19.435
ཕ	-19.435
ཛ	-19.435
ཨ	-19.435
ྐ	-19.435
ဉ	-19.435
ဖ	-19.435
ယ	-19.435
ဝ	-19.435
သ	-19.435
အ	-19.435
ဦ	-19.435
ဲ	-19.435
ံ	-19.435
ွ	-19.435
ყ	-19.435
ᄂ	-19.435
ᄉ	-19.435
ᄋ	-19.435
ᄐ	-19.435
ሃ	-19.435
መ	-19.435
ም	-19.435
ሞ	-19.435
ሠ	-19.435
ሥ	-19.435
ሬ	-19.435
ሮ	-19.435
ሱ	-19.435
ሳ	-19.435
ቤ	-19.435
ኝ	-19.435
እ	-19.435
ኦ	-19.435
ዊ	-19.435
ው	-19.435
ዎ	-19.435
ዐ	-19.435
ዘ	-19.435
ዮ	-19.435
ዴ	-19.435
ጉ	-19.435
ጵ	-19.435
ጸ	-19.435
ፓ	-19.435
ፕ	-19.435
ᏼ	-19.435
ᐊ	-19.435
ᐟ	-19.435
ᑯ	-19.435
ᓇ	-19.435
ᓯ	-19.435
ᔭ	-19.435
ᖏ	-19.435
ᖹ	-19.435
ᖻ	-19.435
ᖾ	-19.435
ᗐ	-19.435
ᚢ	-19.435
ᚨ	-19.435
ᛚ	-19.435
ឃ	-19.435
ច	-19.435
ញ	-19.435
ឥ	-19.435
ួ	-19.435
ើ	-19.435
ែ	-19.435
ះ	-19.435
់	-19.435
័	-19.435
ᨩ	-19.435
ᨾ	-19.435
ᩁ	-19.435
ᩣ	-19.435
ᩥ	-19.435
ᩬ	-19.435
ᩮ	-19.435
ᲈ	-19.435
ᵿ	-19.435
ḕ	-19.435
ṧ	-19.435
ở	-19.435
ỡ	-19.435
ỵ	-19.435
ἇ	-19.435
ἒ	-19.435
ἲ	-19.435
ὗ	-19.435
ὣ	-19.435
ᾠ	-19.435
ᾷ	-19.435
ῒ	-19.435
※	-19.435
‿	-19.435
₣	-19.435
₫	-19.435
℥	-19.435
⇔	-19.435
∉	-19.435
∑	-19.435
≳	-19.435
⊃	-19.435
⊗	-19.435
⊙	-19.435
⊦	-19.435
⊨	-19.435
⋀	-19.435
⋁	-19.435
⋈	-19.435
⋋	-19.435
⋌	-19.435
⌥	-19.435
⌹	-19.435
⏰	-19.435
⏾	-19.435
△	-19.435
▶	-19.435
◀	-19.435
☸	-19.435
☺	-19.435
☻	-19.435
♇	-19.435
♡	-19.435
♦	-19.435
♻	-19.435
⚀	-19.435
⚁	-19.435
⚂	-19.435
⚃	-19.435
⚄	-19.435
⚅	-19.435
⛱	-19.435
✓	-19.435
⠄	-19.435
⠥	-19.435
⠩	-19.435
⠬	-19.435
⠮	-19.435
⠲	-19.435
⠳	-19.435
⠻	-19.435
⠾	-19.435
ⲁ	-19.435
ⲑ	-19.435
ⲗ	-19.435
ⲛ	-19.435
ⲩ	-19.435
ⴹ	-19.435
ⴻ	-19.435
ⴼ	-19.435
ⵕ	-19.435
ⵢ	-19.435
⻊	-19.435
⻗	-19.435
ぜ	-19.435
づ	-19.435
ぴ	-19.435
ぺ	-19.435
ヌ	-19.435
ヰ	-19.435
ヱ	-19.435
ㄆ	-19.435
ㄇ	-19.435
ㄈ	-19.435
ㄒ	-19.435
ㄖ	-19.435
ㄠ	-19.435
ㄣ	-19.435
ㇺ	-19.435
䚯	-19.435
䚻	-19.435
䫸	-19.435
䫺	-19.435
䬡	-19.435
䬢	-19.435
䬥	-19.435
专	-19.435
且	-19.435
严	-19.435
並	-19.435
丰	-19.435
临	-19.435
举	-19.435
乍	-19.435
乗	-19.435
习	-19.435
亀	-19.435
亡	-19.435
亥	-19.435
亦	-19.435
亯	-19.435
亻	-19.435
仍	-19.435
仑	-19.435
仪	-19.435
仮	-19.435
企	-19.435
伏	-19.435
伐	-19.435
优	-19.435
伤	-19.435
伦	-19.435
伶	-19.435
伺	-19.435
似	-19.435
但	-19.435
佈	-19.435
位	-19.435
低	-19.435
佘	-19.435
併	-19.435
侁	-19.435
侕	-19.435
価	-19.435
侧	-19.435
侮	-19.435
侵	-19.435
便	-19.435
促	-19.435
俗	-19.435
俭	-19.435
俵	-19.435
俸	-19.435
倂	-19.435
借	-19.435
倣	-19.435
値	-19.435
倭	-19.435
倶	-19.435
倹	-19.435
假	-19.435
偏	-19.435
做	-19.435
停	-19.435
偵	-19.435
偶	-19.435
偷	-19.435
傅	-19.435
傈	-19.435
傍	-19.435
傘	-19.435
傢	-19.435
催	-19.435
債	-19.435
傾	-19.435
僉	-19.435
働	-19.435
僚	-19.435
僛	-19.435
僧	-19.435
僳	-19.435
儋	-19.435
儚	-19.435
償	-19.435
儰	-19.435
充	-19.435
兎	-19.435
其	-19.435
冊	-19.435
冗	-19.435
冤	-19.435
冥	-19.435
决	-19.435
冴	-19.435
冼	-19.435
净	-19.435
凍	-19.435
凝	-19.435
処	-19.435
凶	-19.435
凷	-19.435
凸	-19.435
凹	-19.435
函	-19.435
刈	-19.435
刷	-19.435
券	-19.435
刺	-19.435
削	-19.435
剖	-19.435
剤	-19.435
副	-19.435
剰	-19.435
割	-19.435
务	-19.435
劣	-19.435
劫	-19.435
労	-19.435
効	-19.435
劾	-19.435
勉	-19.435
勒	-19.435
勘	-19.435
募	-19.435
勢	-19.435
勧	-19.435
勲	-19.435
勻	-19.435
勿	-19.435
匀	-19.435
匠	-19.435
匮	-19.435
匱	-19.435
匿	-19.435
升	-19.435
卋	-19.435
协	-19.435
卑	-19.435
単	-19.435
占	-19.435
卬	-19.435
卯	-19.435
即	-19.435
却	-19.435
卷	-19.435
卸	-19.435
厄	-19.435
厉	-19.435
压	-19.435
厚	-19.435
厨	-19.435
厭	-19.435
參	-19.435
収	-19.435
变	-19.435
叙	-19.435
叛	-19.435
叟	-19.435
叠	-19.435
叫	-19.435
吃	-19.435
吗	-19.435
否	-19.435
含	-19.435
启	-19.435
吸	-19.435
呉	-19.435
咕	-19.435
咖	-19.435
咪	-19.435
咫	-19.435
哩	-19.435
哪	-19.435
哭	-19.435
哮	-19.435
哴	-19.435
唁	-19.435
唄	-19.435
唆	-19.435
唇	-19.435
喊	-19.435
喚	-19.435
喪	-19.435
喫	-19.435
喬	-19.435
嗎	-19.435
嗣	-19.435
嘆	-19.435
嘎	-19.435
嘩	-19.435
嘱	-19.435
嘴	-19.435
噴	-19.435
嚇	-19.435
嚣	-19.435
囯	-19.435
困	-19.435
圉	-19.435
圭	-19.435
址	-19.435
坑	-19.435
坪	-19.435
垍	-19.435
埋	-19.435
埗	-19.435
埜	-19.435
執	-19.435
培	-19.435
堆	-19.435
堤	-19.435
堪	-19.435
堯	-19.435
塀	-19.435
塁	-19.435
塑	-19.435
塗	-19.435
塡	-19.435
塩	-19.435
塵	-19.435
墓	-19.435
墜	-19.435
墟	-19.435
墳	-19.435
壁	-19.435
壇	-19.435
[...]
